{"version":"1.0","truncation":null,"padding":null,"added_tokens":[{"id":0,"content":"<s>","single_word":false,"lstrip":false,"rstrip":false,"normalized":false,"special":true},{"id":1,"content":"<pad>","single_word":false,"lstrip":false,"rstrip":false,"normalized":false,"special":true},{"id":2,"content":"</s>","single_word":false,"lstrip":false,"rstrip":false,"normalized":false,"special":true},{"id":3,"content":"<unk>","single_word":false,"lstrip":false,"rstrip":false,"normalized":false,"special":true},{"id":4,"content":"<mask>","single_word":false,"lstrip":false,"rstrip":false,"normalized":false,"special":true}],"normalizer":{"type":"Sequence","normalizers":[{"type":"Strip","strip_left":true,"strip_right":true},{"type":"NFC"}]},"pre_tokenizer":{"type":"ByteLevel","add_prefix_space":true,"trim_offsets":true,"use_regex":true},"post_processor":{"type":"ByteLevel","add_prefix_space":true,"trim_offsets":true,"use_regex":true},"decoder":{"type":"ByteLevel","add_prefix_space":true,"trim_offsets":true,"use_regex":true},"model":{"type":"BPE","dropout":null,"unk_token":null,"continuing_subword_prefix":null,"end_of_word_suffix":null,"fuse_unk":false,"byte_fallback":false,"ignore_merges":false,"vocab":{"<s>":0,"<pad>":1,"</s>":2,"<unk>":3,"<mask>":4,"!":5,"$":6,"&":7,"'":8,",":9,"-":10,".":11,"3":12,":":13,";":14,"?":15,"A":16,"B":17,"C":18,"D":19,"E":20,"F":21,"G":22,"H":23,"I":24,"J":25,"K":26,"L":27,"M":28,"N":29,"O":30,"P":31,"Q":32,"R":33,"S":34,"T":35,"U":36,"V":37,"W":38,"X":39,"Y":40,"Z":41,"a":42,"b":43,"c":44,"d":45,"e":46,"f":47,"g":48,"h":49,"i":50,"j":51,"k":52,"l":53,"m":54,"n":55,"o":56,"p":57,"q":58,"r":59,"s":60,"t":61,"u":62,"v":63,"w":64,"x":65,"y":66,"z":67,"Ġ":68,"Ġt":69,"he":70,"Ġa":71,"ou":72,"Ġs":73,"Ġm":74,"Ġw":75,"in":76,"re":77,"ha":78,"Ġthe":79,"nd":80,"Ġb":81,"is":82,"or":83,"Ġf":84,"ĠI":85,"er":86,"ll":87,"it":88,"on":89,"Ġd":90,"Ġc":91,"Ġn":92,"Ġl":93,"Ġy":94,"es":95,"en":96,"Ġth":97,"ar":98,"Ġh":99,"Ġo":100,"Ġto":101,"Ġyou":102,"Ġp":103,"ĠT":104,"hat":105,"ĠA":106,"Ġhe":107,"ve":108,"ot":109,"Ġand":110,"st":111,"ow":112,"ing":113,"Ġof":114,"an":115,"om":116,"Ġg":117,"at":118,"Ġbe":119,"ĠW":120,"se":121,"Ġmy":122,"Ġin":123,"Ġha":124,"ce":125,"le":126,"ay":127,"ld":128,"ir":129,"et":130,"ed":131,"ut":132,"ĠB":133,"Ġme":134,"im":135,"ĠS":136,"ith":137,"Ġnot":138,"'s":139,"ĠH":140,"ch":141,"Ġthat":142,"Ġis":143,"ĠM":144,"gh":145,"ĠAnd":146,"Ġfor":147,"Ġu":148,"ke":149,"ĠC":150,"Ġwe":151,"our":152,"oo":153,"ill":154,"Ġe":155,"Ġwith":156,"her":157,"Ġit":158,"ent":159,"Ġyour":160,"ad":161,"ri":162,"ĠO":163,"Ġthou":164,"Ġst":165,"Ġk":166,"ĠL":167,"'d":168,"ome":169,"Ġhis":170,"ĠF":171,"ĠG":172,"ght":173,"EN":174,"Ġre":175,"ord":176,"id":177,"ra":178,"ĠThe":179,"Ġhave":180,"Ġhim":181,"IN":182,"ly":183,"Ġli":184,"as":185,"ĠP":186,"Ġthis":187,"ur":188,"IO":189,"al":190,"Ġso":191,"Ġas":192,"Ġde":193,"Ġon":194,"ĠR":195,"ore":196,"ro":197,"ĠN":198,"hi":199,"ould":200,"ood":201,"AR":202,"ck":203,"ain":204,"ver":205,"ĠY":206,"est":207,"Ġsha":208,"Ġthy":209,"ess":210,"Ġwill":211,"Ġdo":212,"ea":213,"Ġno":214,"am":215,"ĠE":216,"Ġbut":217,"ĠD":218,"us":219,"Ġse":220,"US":221,"if":222,"Ġ'":223,"ge":224,"Ġall":225,"and":226,"ĠTh":227,"Ġsu":228,"ake":229,"ĠTo":230,"Ġher":231,"ru":232,"ion":233,"Ġan":234,"ĠK":235,"Ġlo":236,"ter":237,"ard":238,"han":239,"Ġsp":240,"ell":241,"ear":242,"Ġthee":243,"Ġfa":244,"Ġshall":245,"Ġour":246,"Ġby":247,"th":248,"UC":249,"Ġare":250,"il":251,"ING":252,"Ġne":253,"Ġkn":254,"rom":255,"ho":256,"Ġv":257,"ĠThat":258,"ER":259,"OR":260,"ast":261,"ct":262,"ous":263,"Ġwhat":264,"Ġsh":265,"ight":266,"ul":267,"ET":268,"ant":269,"Ġup":270,"Ġgood":271,"sel":272,"qu":273,"ĠBut":274,"art":275,"row":276,"ine":277,"Ġcom":278,"ath":279,"Ġmu":280,"Ġlord":281,"hich":282,"nt":283,"Ġpr":284,"Ġman":285,"'ll":286,"Ġat":287,"ĠV":288,"one":289,"Ġwhe":290,"Ġcon":291,"ĠWhat":292,"Ġam":293,"end":294,"ic":295,"ES":296,"ble":297,"ry":298,"Ġfrom":299,"ong":300,"ie":301,"Ġshe":302,"Ġbl":303,"ive":304,"ven":305,"Ġgo":306,"Ġmore":307,"ĠFor":308,"Ġthem":309,"em":310,"Ġwas":311,"IC":312,"out":313,"au":314,"Ġsir":315,"other":316,"are":317,"oth":318,"ol":319,"Ġif":320,"Ġnow":321,"ĠHe":322,"Ġhat":323,"Ġthere":324,"Ġwould":325,"AN":326,"ost":327,"Ġknow":328,"Ġcan":329,"LO":330,"ind":331,"ers":332,"IUS":333,"ep":334,"self":335,"Ġsay":336,"ARD":337,"ĠKING":338,"ather":339,"ond":340,"res":341,"ate":342,"fe":343,"Ġsw":344,"Ġhere":345,"Ġlove":346,"Ġtheir":347,"Ġor":348,"Ġthan":349,"ĠMy":350,"Ġbr":351,"pp":352,"--":353,"Ġthey":354,"Ġus":355,"Ġking":356,"Ġthen":357,"all":358,"Ġar":359,"od":360,"Ġlet":361,"Ġun":362,"ig":363,"Ġwor":364,"ure":365,"ink":366,"Ġmay":367,"hy":368,"Ġcome":369,"ame":370,"fore":371,"ort":372,"ĠAs":373,"Ġqu":374,"ook":375,"Ġwell":376,"el":377,"ish":378,"LI":379,"ĠWhe":380,"Ġj":381,"KE":382,"ves":383,"Ġone":384,"Ġhath":385,"irst":386,"Ġmake":387,"ĠYou":388,"Ġgra":389,"reat":390,"ak":391,"ng":392,"Ġmust":393,"gain":394,"ound":395,"Ġwere":396,"Ġho":397,"Ġsee":398,"Ġshould":399,"Ġlike":400,"ci":401,"Ġpro":402,"ue":403,"eak":404,"TIO":405,"Ġsa":406,"ity":407,"Ġmad":408,"Ġpl":409,"Ġfather":410,"Ġhad":411,"um":412,"Ġdid":413,"Ġupon":414,"OM":415,"ime":416,"pe":417,"Ġtoo":418,"ice":419,"ON":420,"ĠJ":421,"Ġdis":422,"ence":423,"Ġdeath":424,"ward":425,"Ġwhich":426,"Ġen":427,"ĠIf":428,"ose":429,"own":430,"Ġspeak":431,"Ġpo":432,"Ġwhen":433,"ful":434,"Ġout":435,"Ġfri":436,"Ġhow":437,"entle":438,"io":439,"pt":440,"un":441,"Ġagain":442,"ICH":443,"ĠRICH":444,"Ġtru":445,"OL":446,"UKE":447,"de":448,"ĠDUKE":449,"man":450,"Ġheart":451,"Ġyet":452,"ick":453,"Ġhand":454,"very":455,"ĠWith":456,"ĠRICHARD":457,"Ġwho":458,"ENTIO":459,"ĠThou":460,"Ġsome":461,"ĠWe":462,"ign":463,"ance":464,"ĠWhich":465,"Ġmar":466,"Ġhon":467,"nce":468,"ies":469,"Ġr":470,"Ġson":471,"ĠIn":472,"ire":473,"Ġmine":474,"Ġoff":475,"ist":476,"Ġal":477,"ince":478,"INC":479,"har":480,"orn":481,"ack":482,"ĠWhy":483,"'t":484,"wn":485,"ĠOf":486,"ĠGod":487,"EL":488,"Ġtime":489,"Ġhea":490,"Ġsuch":491,"oy":492,"ĠFirst":493,"Ġhear":494,"ĠSo":495,"ness":496,"Ġbrother":497,"ec":498,"Ġthese":499,"ĠCl":500,"Ġblood":501,"Ġab":502,"ither":503,"Ġex":504,"Ġgive":505,"UE":506,"Ġfo":507,"ĠIs":508,"Ġday":509,"ĠNo":510,"Ġear":511,"Ġro":512,"Ġlook":513,"Ġthink":514,"Ġtell":515,"ĠII":516,"ĠHow":517,"Ġlife":518,"TER":519,"ise":520,"Ġey":521,"AB":522,"eet":523,"Ġwhere":524,"Ġtake":525,"Ġword":526,"UCH":527,"oul":528,"Ġfriend":529,"ther":530,"ĠQ":531,"ĠThis":532,"ag":533,"age":534,"Ġdes":535,"ĠGLO":536,"UCES":537,"ĠGLOUCES":538,"ĠGLOUCESTER":539,"ef":540,"een":541,"erv":542,"ĠCome":543,"ust":544,"Ġgentle":545,"ady":546,"rown":547,"ings":548,"ĠLord":549,"ĠU":550,"Ġri":551,"urse":552,"ave":553,"RY":554,"ase":555,"ĠRome":556,"tis":557,"Ġlea":558,"ĠVINC":559,"Ġart":560,"UEEN":561,"ĠQUEEN":562,"ĠVINCENTIO":563,"way":564,"Ġwar":565,"ĠOF":566,"Ġmost":567,"Ġhonour":568,"Ġfl":569,"ĠMar":570,"Ġmuch":571,"UM":572,"LAN":573,"Ġsl":574,"ĠWhere":575,"AM":576,"urn":577,"Ġmade":578,"Ġtw":579,"ment":580,"Ġfear":581,"Ġhast":582,"ĠNow":583,"ĠWho":584,"Ġbet":585,"ĠHEN":586,"aught":587,"ĠHENRY":588,"Ġcou":589,"Ġgreat":590,"ĠBe":591,"ber":592,"not":593,"Ġbre":594,"ved":595,"Ġnever":596,"Ġfair":597,"Ġnew":598,"cc":599,"ee":600,"ss":601,"Ġaf":602,"ower":603,"ap":604,"igh":605,"Ġmen":606,"ĠAN":607,"tle":608,"orrow":609,"ĠYour":610,"aster":611,"uke":612,"ĠIt":613,"iz":614,"ough":615,"ĠYOR":616,"ĠYORK":617,"Ġcall":618,"Ġpart":619,"Ġany":620,"Ġra":621,"ation":622,"ĠOr":623,"INIUS":624,"ST":625,"Ġad":626,"ree":627,"ide":628,"Ġcomm":629,"Ġcannot":630,"Ġpre":631,"Ġstand":632,"Ġtrue":633,"Ġheaven":634,"Ġname":635,"ĠPET":636,"AU":637,"Ġbeen":638,"Ġpray":639,"hing":640,"old":641,"Ġcl":642,"Ġsweet":643,"DW":644,"Ġper":645,"Ġple":646,"ĠEDW":647,"ĠEDWARD":648,"ple":649,"ĠGR":650,",--":651,"Ġdoth":652,"Ġnoble":653,"Ġwr":654,"Ġown":655,"ears":656,"ĠLUC":657,"ouse":658,"Ġdone":659,"ĠThere":660,"ull":661,"Ġtr":662,"Ġway":663,"Ġother":664,"Ġhead":665,"ife":666,"RO":667,"aw":668,"Ġmean":669,"Ġpres":670,"UT":671,"Ġbear":672,"ĠEd":673,"Ġsc":674,"red":675,"Ġnor":676,"AP":677,"EO":678,"Ġvery":679,"Ġsoul":680,"ĠAy":681,"ĠROM":682,"ĠWhen":683,"ĠEdward":684,"ĠROMEO":685,"ving":686,"Ġboth":687,"Ġnight":688,"ĠAn":689,"Ġbefore":690,"ĠMEN":691,"ENIUS":692,"ass":693,"aint":694,"Ġworld":695,"ĠMENENIUS":696,"ace":697,"ger":698,"ĠBy":699,"ause":700,"Ġqueen":701,"li":702,"ĠLet":703,"TH":704,"Ġmo":705,"Ġchi":706,"aughter":707,"RUCH":708,"ĠThen":709,"ĠHere":710,"ĠPETRUCH":711,"ĠPETRUCHIO":712,"able":713,"Ġdown":714,"Ġdead":715,"Ġcont":716,"TES":717,"Ġapp":718,"Ġwh":719,"ite":720,"Ġke":721,"Ġbeing":722,"Ġrem":723,"per":724,"Ġmyself":725,"ab":726,"les":727,"ĠThan":728,"ĠMAR":729,"Ġbeg":730,"Ġarm":731,"Ġthus":732,"ĠCOR":733,"IOLAN":734,"ilt":735,"Ġleave":736,"ĠCORIOLAN":737,"ĠCORIOLANUS":738,"ĠSec":739,"Ġgrace":740,"ĠSecond":741,"Ġunt":742,"ction":743,"ĠNor":744,"ress":745,"Ġeyes":746,"Ġim":747,"Ġmother":748,"ĠLE":749,"less":750,"Ġma":751,"Ġold":752,"land":753,"ran":754,"Ġrep":755,"INA":756,"itiz":757,"Ġever":758,"itizen":759,"lo":760,"ps":761,"sw":762,"Ġwife":763,"Ġlong":764,"Ġint":765,"ĠShe":766,"Ġlive":767,"Ġchild":768,"Ġwom":769,"Ġpoor":770,"Ġfriends":771,"Ġaway":772,"Ġcons":773,"ĠIII":774,"ĠGo":775,"Ġmight":776,"ford":777,"nder":778,"Ġdie":779,"ĠSir":780,"Ġstay":781,"eace":782,"Ġcomes":783,"ks":784,"wick":785,"oud":786,"atch":787,"ĠWar":788,"led":789,"Ġmany":790,"Ġru":791,"Ġhouse":792,"Ġrest":793,"Ġcrown":794,"Ġpe":795,"ĠWarwick":796,"ff":797,"Ġcour":798,"Ġle":799,"ows":800,"Tis":801,"come":802,"Ġent":803,"ison":804,"Ġhar":805,"ĠHis":806,"Ġthought":807,"LA":808,"SAB":809,"ĠISAB":810,"Ġlie":811,"ELLA":812,"ĠISABELLA":813,"ian":814,"uck":815,"iss":816,"erc":817,"RAN":818,"Ġset":819,"Ġdaughter":820,"che":821,"ĠWell":822,"Ġnothing":823,"ĠRomeo":824,"ULI":825,"Ġtong":826,"ors":827,"atter":828,"ONTES":829,"ĠJULI":830,"Ġbetter":831,"ĠLEONTES":832,"ĠJULIET":833,"ittle":834,"Ġgone":835,"ĠSt":836,"ĠNay":837,"Ġprince":838,"ĠVI":839,"rant":840,"AD":841,"ought":842,"Ġwit":843,"int":844,"ĠLAD":845,"ĠLADY":846,"AL":847,"CE":848,"well":849,"Ġtri":850,"ENCE":851,"ied":852,"me":853,"ĠPro":854,"Ġnews":855,"Ġkeep":856,"os":857,"Ġsle":858,"Ġbest":859,"Ġres":860,"Ġagainst":861,"ces":862,"for":863,"ious":864,"hall":865,"Ġthose":866,"ĠServ":867,"ier":868,"Ġacc":869,"Ġlittle":870,"Ġhence":871,"Ġgri":872,"ĠSIC":873,"ĠCitizen":874,"ool":875,"Ġcomp":876,"hard":877,"ĠSICINIUS":878,"Ġthing":879,"Ġhour":880,"ĠNot":881,"Ġlords":882,"ty":883,"Ġput":884,"ardon":885,"Ġface":886,"akes":887,"une":888,"lse":889,"llow":890,"sed":891,"Ġend":892,"ĠOn":893,"Ġkind":894,"EY":895,"Ġyoung":896,"Ġstill":897,"ult":898,"Ġtwo":899,"ret":900,"ork":901,"ont":902,"Ġpri":903,"Ġhimself":904,"ield":905,"ud":906,"Ġpur":907,"Ġpower":908,"alk":909,"ĠThy":910,"ĠLUCIO":911,"ale":912,"ins":913,"ĠIV":914,"ert":915,"Ġcha":916,"ĠRic":917,"ĠRichard":918,"ew":919,"ĠCL":920,"Ġsub":921,"Ġtherefore":922,"Ġcount":923,"TI":924,"cl":925,"ft":926,"iness":927,"Ġfirst":928,"Ġpeace":929,"Ġgu":930,"Ġelse":931,"ried":932,"Ġdear":933,"cious":934,"Ġunto":935,"Ġtill":936,"Ġsm":937,"Ġduke":938,"Ġcould":939,"ĠWill":940,"ĠBR":941,"ĠHave":942,"ason":943,"hile":944,"ail":945,"ect":946,"ile":947,"Ġtra":948,"Ġback":949,"Ġco":950,"Ġhus":951,"uty":952,"Ġthough":953,"Ġwords":954,"ZAB":955,"Ġtre":956,"Ġbid":957,"Ġfell":958,"Ġfind":959,"Ġdre":960,"ĠYork":961,"ĠELI":962,"Ġneed":963,"ETH":964,"Ġearth":965,"Ġtongue":966,"ZABETH":967,"ĠELIZABETH":968,"band":969,"ius":970,"ople":971,"yal":972,"Ġlady":973,"Ġthine":974,"IAN":975,"men":976,"Ġbra":977,"orse":978,"Ġhome":979,"Ġhel":980,"Ġforth":981,"Ġseem":982,"Ġhope":983,"eech":984,"ray":985,"enry":986,"ark":987,"Ġhigh":988,"eth":989,"ĠHenry":990,"ĠYet":991,"Ġhusband":992,"vere":993,"ĠGood":994,"Ġright":995,"get":996,"Ġchan":997,"WIC":998,"tw":999,"Ġmind":1000,"Ġban":1001,"ĠWAR":1002,"uth":1003,"Ġpeople":1004,"WICK":1005,"ĠWARWICK":1006,"AST":1007,"ach":1008,"ds":1009,"ix":1010,"rer":1011,"ister":1012,"Ġche":1013,"Ġchar":1014,"ĠAll":1015,"ĠShall":1016,"hip":1017,"ĠDo":1018,"Ġshow":1019,"Ġconf":1020,"ged":1021,"Ġbri":1022,"Ġhands":1023,"HAM":1024,"fort":1025,"Ġmaster":1026,"Ġwhy":1027,"Ġcause":1028,"ĠNurse":1029,"Ġjoy":1030,"Ġimp":1031,"LET":1032,"ULET":1033,"Ġserv":1034,"Ġmist":1035,"Ġnone":1036,"Ġlaw":1037,"Ġgl":1038,"ĠCAP":1039,"ĠThey":1040,"Ġonce":1041,"Ġsaid":1042,"ĠCAPULET":1043,"Ġfort":1044,"Ġevery":1045,"GE":1046,"IL":1047,"MIO":1048,"ren":1049,"Ġbod":1050,"ousin":1051,"Ġbring":1052,"RI":1053,"bt":1054,"Ġdou":1055,"KING":1056,"eed":1057,"Ġpass":1058,"ates":1059,"ĠBUC":1060,"Ġplease":1061,"UTUS":1062,"ĠBRUTUS":1063,"KINGHAM":1064,"ĠBUCKINGHAM":1065,"BRO":1066,"iet":1067,"lt":1068,"ĠTRAN":1069,"ird":1070,"ĠBOL":1071,"ĠFrom":1072,"Ġlight":1073,"INGBRO":1074,"ESS":1075,"ĠTRANIO":1076,"ĠBOLINGBRO":1077,"ĠBOLINGBROKE":1078,"eel":1079,"vost":1080,"Ġtears":1081,"Ġwo":1082,"Ġbes":1083,"Ġnat":1084,"Ġthr":1085,"Ġwhose":1086,"Ġroyal":1087,"Ġpresent":1088,"swer":1089,"cle":1090,"mb":1091,"Ġsince":1092,"Ġboy":1093,"its":1094,"Ġcame":1095,"ary":1096,"ĠOur":1097,"Ġjust":1098,"lf":1099,"ock":1100,"vy":1101,"ory":1102,"Ġfull":1103,"Ġpardon":1104,"Ġheard":1105,"Ġunder":1106,"Ġdev":1107,"roke":1108,"Ġafter":1109,"Ġwrong":1110,"GAR":1111,"NE":1112,"pose":1113,"Ġland":1114,"Ġhapp":1115,"Ġplace":1116,"ĠMARGAR":1117,"ĠMARGARET":1118,"ATH":1119,"Ġmis":1120,"Ġlast":1121,"ens":1122,"Ġere":1123,"Ġstate":1124,"ĠKing":1125,"AMIL":1126,"sand":1127,"Ġsorrow":1128,"Ġcare":1129,"Ġmeet":1130,"Ġkill":1131,"Ġhold":1132,"cent":1133,"ition":1134,"Ġthousand":1135,"esty":1136,"ORD":1137,"Ġeye":1138,"ĠANGE":1139,"ĠGRE":1140,"Ġwhom":1141,"Ġhelp":1142,"ĠANGELO":1143,"Ġfal":1144,"Ġless":1145,"ARINA":1146,"ĠEng":1147,"Ġanswer":1148,"arence":1149,"Ġfollow":1150,"SC":1151,"Ġbus":1152,"Ġfar":1153,"Ġfool":1154,"Ġch":1155,"Ġhither":1156,"Ġpat":1157,"ceive":1158,"irt":1159,"ĠSh":1160,"Ġweep":1161,"Ġshame":1162,"Ġsun":1163,"ĠKATH":1164,"selves":1165,"cius":1166,"Ġenem":1167,"ĠClarence":1168,"Ġabout":1169,"ĠKATHARINA":1170,"iol":1171,"urde":1172,"Ġfall":1173,"Ġgentleman":1174,"ĠMarcius":1175,"Ġmaid":1176,"day":1177,"Ġob":1178,"asure":1179,"Ġinto":1180,"Ġmakes":1181,"Ġcousin":1182,"ĠESC":1183,"Ġhate":1184,"Ġgracious":1185,"ĠUn":1186,"ĠUp":1187,"Ġcoun":1188,"Ġcourt":1189,"ALUS":1190,"Ġgrief":1191,"ĠESCALUS":1192,"air":1193,"ject":1194,"ĠAl":1195,"imes":1196,"Ġstri":1197,"Ġwoman":1198,"iv":1199,"ove":1200,"Ġturn":1201,"ĠHath":1202,"Ġstre":1203,"Ġcomfort":1204,"Ġworth":1205,"ild":1206,"ling":1207,"Ġtalk":1208,"Ġwilt":1209,"ons":1210,"Ġhum":1211,"Ġbed":1212,"alt":1213,"Ġdost":1214,"ĠDUCH":1215,"ĠDuke":1216,"ices":1217,"deed":1218,"Ġsleep":1219,"urderer":1220,"ĠDUCHESS":1221,"pher":1222,"ount":1223,"itor":1224,"Ġover":1225,"Ġbel":1226,"ERC":1227,"ĠAnge":1228,"Ġbody":1229,"morrow":1230,"Ġi":1231,"Ġsound":1232,"Ġbu":1233,"Ġdra":1234,"Ġinst":1235,"ute":1236,"ĠHer":1237,"Ġfault":1238,"Ġatt":1239,"Ġthank":1240,"ĠAngelo":1241,"IA":1242,"ience":1243,"ised":1244,"Ġindeed":1245,"ĠCAMIL":1246,"Ġanother":1247,"Ġprove":1248,"Ġplay":1249,"Ġadv":1250,"Ġfalse":1251,"ĠCAMILLO":1252,"ily":1253,"Ġser":1254,"omet":1255,"ĠWould":1256,"Ġhas":1257,"Ġuse":1258,"Ġwel":1259,"Ġret":1260,"Ġdeed":1261,"ĠEven":1262,"Ġvo":1263,"ieve":1264,"Ġsword":1265,"ĠProvost":1266,"Ġfellow":1267,"TEN":1268,"Ġmatter":1269,"Ġbo":1270,"Ġfight":1271,"Ġpers":1272,"ans":1273,"ĠHOR":1274,"illain":1275,"Ġeven":1276,"ade":1277,"Ġfortune":1278,"TENS":1279,"ĠHORTENS":1280,"Ġsent":1281,"ĠFRI":1282,"Ġsovere":1283,"hold":1284,"Ġprison":1285,"Ġgrave":1286,"Ġcountry":1287,"ĠUpon":1288,"ĠHORTENSIO":1289,"ĠFRIAR":1290,",'":1291,"eal":1292,"Ġmerc":1293,"Ġdan":1294,"Ġcur":1295,"Ġyears":1296,"ĠAre":1297,"ĠBAP":1298,"ury":1299,"Ġsend":1300,"Ġvirt":1301,"Ġrather":1302,"STA":1303,"TISTA":1304,"Ġbanish":1305,"Ġdoubt":1306,"ĠBAPTISTA":1307,"CUS":1308,"YCUS":1309,"mp":1310,"ouch":1311,"Ġwant":1312,"Ġwish":1313,"ĠTy":1314,"ĠAUT":1315,"Ġgr":1316,"Ġhang":1317,"ĠCOM":1318,"Ġreven":1319,"Ġass":1320,"fect":1321,"pect":1322,"OLYCUS":1323,"Ġtruth":1324,"Ġbusiness":1325,"ĠAUTOLYCUS":1326,"ĠCOMINIUS":1327,".'":1328,"dd":1329,"ĠAt":1330,"ĠMore":1331,"Ġreason":1332,"Ġlies":1333,"Ġonly":1334,"ARENCE":1335,"Ġshalt":1336,"ĠThird":1337,"Ġdisc":1338,"ĠCLARENCE":1339,"ere":1340,"ior":1341,"ms":1342,"pen":1343,"rance":1344,"Ġsea":1345,"Ġcra":1346,"Ġstra":1347,"ENES":1348,"Ġbreath":1349,"Ġcommand":1350,"Ġarms":1351,"Ġdream":1352,"pherd":1353,"VOL":1354,"der":1355,"Ġlay":1356,"ener":1357,"Ġprom":1358,"Ġgi":1359,"ĠBEN":1360,"Ġstran":1361,"ĠGentle":1362,"ĠNOR":1363,"Ġsec":1364,"ĠClown":1365,"VOLIO":1366,"ĠBENVOLIO":1367,"PER":1368,"SPER":1369,"Ġsen":1370,"Ġsomet":1371,"Ġwind":1372,"Ġpity":1373,"ĠTake":1374,"ĠPRO":1375,"Ġproud":1376,"Ġholy":1377,"Ġenough":1378,"UMIO":1379,"ĠGRUMIO":1380,"Ġcontent":1381,"Ġremem":1382,"SPERO":1383,"ĠPROSPERO":1384,"UTIO":1385,"ia":1386,"ken":1387,"ten":1388,"hed":1389,"Ġdare":1390,"Ġthree":1391,"ator":1392,"Ġbea":1393,"ĠSu":1394,"ĠMurderer":1395,"ĠMERC":1396,"Ġlives":1397,"Ġsold":1398,"ĠDid":1399,"ĠKate":1400,"Ġspir":1401,"Ġfare":1402,"Ġswear":1403,"ĠMERCUTIO":1404,"IS":1405,"ike":1406,"Ġtend":1407,"Ġget":1408,"eter":1409,"Ġwithin":1410,"Ġdep":1411,"Ġvillain":1412,"Ġgods":1413,"ĠWere":1414,"ĠLUCENTIO":1415,"ĠServant":1416,"Ġnature":1417,"Ġwelcome":1418,"Ġsister":1419,"ham":1420,"Ġfoul":1421,"Ġfree":1422,"Ġthings":1423,"ars":1424,"Ġgre":1425,"Ġkiss":1426,"ĠPOM":1427,"ester":1428,"Ġsaw":1429,"Ġmadam":1430,"LAND":1431,"Ġmistress":1432,"Ġhappy":1433,"Ġsovereign":1434,"ĠPOMP":1435,"LINA":1436,"apt":1437,"ient":1438,"unt":1439,"hal":1440,"Ġcity":1441,"Ġyield":1442,"any":1443,"ĠWas":1444,"ĠGive":1445,"ĠPAU":1446,"vers":1447,"Ġbreak":1448,"Ġmeans":1449,"Ġsubject":1450,"Ġbeseech":1451,"ĠPAULINA":1452,"Ġaw":1453,"Ġmer":1454,"Ġborn":1455,"ery":1456,"Ġden":1457,"Ġhorse":1458,"Ġoath":1459,"ĠSay":1460,"Ġyours":1461,"ĠLook":1462,"onder":1463,"gainst":1464,"ague":1465,"eft":1466,"gether":1467,"ĠGREMIO":1468,"ĠPOMPEY":1469,"NIA":1470,"OLI":1471,"XENES":1472,"balt":1473,"Ġtem":1474,"Ġwound":1475,"Ġwhile":1476,"Ġfire":1477,"Ġdru":1478,"anc":1479,"ĠCom":1480,"Ġyourself":1481,"ĠPOLI":1482,"usic":1483,"Ġsupp":1484,"Ġfaith":1485,"ĠVOL":1486,"Ġbloody":1487,"Ġlooks":1488,"UMNIA":1489,"ches":1490,"ĠEngland":1491,"ĠPOLIXENES":1492,"ĠVOLUMNIA":1493,"ey":1494,"ues":1495,"Ġsit":1496,"Ġwin":1497,"Ġcar":1498,"Ġcond":1499,"enger":1500,"ingman":1501,"ĠHAST":1502,"ĠFare":1503,"Ġrequ":1504,"Ġspo":1505,"INGS":1506,"Ġcommon":1507,"Ġmaj":1508,"ĠServingman":1509,"Ġtraitor":1510,"centio":1511,"ĠHASTINGS":1512,"RENCE":1513,"by":1514,"broke":1515,"rong":1516,"Ġmon":1517,"Ġlam":1518,"ĠHast":1519,"ĠMay":1520,"ĠCan":1521,"ĠLAU":1522,"Ġdef":1523,"essenger":1524,"Ġuncle":1525,"Ġmark":1526,"Ġchildren":1527,"ertain":1528,"ĠLAURENCE":1529,"BY":1530,"BER":1531,"Ġsight":1532,"Ġmet":1533,"Ġlate":1534,"Ġleft":1535,"ĠAh":1536,"Ġbeat":1537,"Ġsoon":1538,"Ġval":1539,"ĠJul":1540,"ĠTherefore":1541,"form":1542,"Ġdanger":1543,"ĠTybalt":1544,"Ġtender":1545,"Ġmajesty":1546,"FF":1547,"use":1548,"Ġsin":1549,"Ġtold":1550,"ĠSp":1551,"Ġseen":1552,"Ġsure":1553,"LIFF":1554,"Ġsave":1555,"Ġfoot":1556,"Ġdays":1557,"Ġwarrant":1558,"UMBER":1559,"like":1560,"THUMBER":1561,"Ġwoe":1562,"ĠNORTHUMBER":1563,"ĠNORTHUMBERLAND":1564,"ID":1565,"TA":1566,"ting":1567,"Ġsad":1568,"rem":1569,"Ġgener":1570,"ĠLu":1571,"ides":1572,"idow":1573,"ĠPl":1574,"Ġdoes":1575,"Ġreport":1576,"Ġreturn":1577,"Ġmercy":1578,"Ġfarewell":1579,"dom":1580,"ring":1581,"up":1582,"hes":1583,"rel":1584,"Ġtogether":1585,"Ġwithout":1586,"Ġdeep":1587,"ters":1588,"earn":1589,"Ġgold":1590,"unes":1591,"ĠThough":1592,"Ġmarry":1593,"Ġheavy":1594,"ĠANNE":1595,"Ġpurpose":1596,"Ġthrough":1597,"RINC":1598,"aim":1599,"bl":1600,"ca":1601,"cher":1602,"ict":1603,"vent":1604,"Ġill":1605,"Ġcho":1606,"Ġcold":1607,"Ġnurse":1608,"Ġgrow":1609,"ĠHad":1610,"ĠMont":1611,"Ġrec":1612,"ĠPRINC":1613,"ifford":1614,"Ġlost":1615,"ERD":1616,"ignior":1617,"ĠClifford":1618,"Ġears":1619,"Ġdeser":1620,"ments":1621,"Ġperson":1622,"Ġstrange":1623,"ĠJuliet":1624,"ĠPRINCE":1625,"az":1626,"mer":1627,"Ġtimes":1628,"Ġwat":1629,"oriol":1630,"ĠTell":1631,"ingbroke":1632,"ceed":1633,"ĠBol":1634,"ĠMI":1635,"ĠCam":1636,"ours":1637,"enty":1638,"Ġask":1639,"ĠRi":1640,"ross":1641,"Ġthyself":1642,"ush":1643,"Ġsuff":1644,"Ġpluck":1645,"Ġdisp":1646,"Ġliege":1647,"Ġbelieve":1648,"Ġspirit":1649,"ĠBolingbroke":1650,"ever":1651,"Ġair":1652,"Ġage":1653,"Ġsil":1654,"Ġlearn":1655,"ĠAway":1656,"Ġheir":1657,"ĠWh":1658,"ets":1659,"ĠSome":1660,"ĠSignior":1661,"ĠHa":1662,"ains":1663,"ift":1664,"Ġloss":1665,"Ġsays":1666,"Ġjo":1667,"Ġpoint":1668,"ĠWhose":1669,"ĠOne":1670,"ĠShould":1671,"aid":1672,"ial":1673,"ner":1674,"Ġbat":1675,"Ġfly":1676,"Ġcry":1677,"Ġpast":1678,"ced":1679,"ĠCoriol":1680,"Ġfriar":1681,"Ġtrust":1682,"Ġdesire":1683,"Ġhaste":1684,"Ġentreat":1685,"Ġjustice":1686,"Ġdevil":1687,"Ġinstru":1688,"Ġground":1689,"ĠFarewell":1690,"gu":1691,"ges":1692,"night":1693,"sh":1694,"Ġord":1695,"outh":1696,"Ġmur":1697,"ina":1698,"ined":1699,"Ġbold":1700,"Ġfound":1701,"Ġnear":1702,"Ġtoward":1703,"ĠSen":1704,"ĠLike":1705,"ĠFrance":1706,"ĠPray":1707,"Ġfast":1708,"Ġvis":1709,"aud":1710,"aking":1711,"Ġslain":1712,"Ġbetw":1713,"ixt":1714,"Ġservice":1715,"Ġstraight":1716,"Ġremember":1717,"FID":1718,"IZ":1719,"LE":1720,"LOR":1721,"UFID":1722,"Ġcurse":1723,"ĠAUFID":1724,"oman":1725,"ution":1726,"ĠMessenger":1727,"Ġwear":1728,"Ġstrong":1729,"ĠFLOR":1730,"ĠGl":1731,"ĠThese":1732,"Ġquick":1733,"Ġmarried":1734,"Ġalone":1735,"Ġhard":1736,"Ġworthy":1737,"Ġbeauty":1738,"IZEL":1739,"ĠAUFIDIUS":1740,"ĠFLORIZEL":1741,"TON":1742,"ning":1743,"xt":1744,"Ġtouch":1745,"Ġwoo":1746,"Ġfit":1747,"ithe":1748,"Ġhu":1749,"Ġopen":1750,"Ġgrant":1751,"Ġbec":1752,"let":1753,"ĠSee":1754,"adam":1755,"Ġready":1756,"ION":1757,"Ġbrought":1758,"ured":1759,"Ġposs":1760,"ĠClaud":1761,"Ġexec":1762,"Ġrun":1763,"Ġenemy":1764,"Ġrevenge":1765,"Ġgeneral":1766,"ĠClaudio":1767,"!'":1768,"bs":1769,"gs":1770,"ible":1771,"Ġfur":1772,"Ġduty":1773,"Ġyouth":1774,"Ġinc":1775,"Ġinf":1776,"cept":1777,"Ġiss":1778,"Ġitself":1779,"Ġdeli":1780,"Ġlose":1781,"ERS":1782,"aunt":1783,"Ġknows":1784,"Ġcanst":1785,"inks":1786,"Ġquar":1787,"Ġprof":1788,"umber":1789,"Ġthoughts":1790,"Ġhours":1791,"Ġcharge":1792,"Ġconfess":1793,"ĠGentleman":1794,"ĠSenator":1795,"AS":1796,"BAST":1797,"CIUS":1798,"EBAST":1799,"cester":1800,"pl":1801,"ship":1802,"ua":1803,"vo":1804,"Ġmorn":1805,"Ġfeel":1806,"Ġpar":1807,"ĠAgainst":1808,"ĠBec":1809,"ĠSEBAST":1810,"ĠMaster":1811,"ĠMadam":1812,"illo":1813,"riage":1814,"Ġread":1815,"Ġdel":1816,"Ġspeed":1817,"Ġdesp":1818,"Ġtwenty":1819,"Ġstands":1820,"ĠMARCIUS":1821,"ĠShepherd":1822,"ched":1823,"Ġstreng":1824,"ĠMontague":1825,"ĠGlou":1826,"ithee":1827,"ĠSEBASTIAN":1828,"OW":1829,"cess":1830,"eep":1831,"op":1832,"ted":1833,"Ġfore":1834,"Ġfield":1835,"Ġdiv":1836,"Ġpost":1837,"Ġhell":1838,"ingham":1839,"Ġbehold":1840,"Ġhalf":1841,"oop":1842,"ĠPr":1843,"olk":1844,"fection":1845,"Ġjud":1846,"ump":1847,"Ġfearful":1848,"Ġmock":1849,"Ġresol":1850,"Ġcounsel":1851,"ĠCamillo":1852,"DEL":1853,"no":1854,"Ġter":1855,"Ġmin":1856,"Ġwret":1857,"Ġbound":1858,"Ġbos":1859,"Ġdam":1860,"Ġcut":1861,"Ġye":1862,"ĠTill":1863,"ĠBo":1864,"ĠBuck":1865,"ĠBION":1866,"Ġeach":1867,"ads":1868,"alm":1869,"Ġshort":1870,"ĠVol":1871,"Ġknown":1872,"Ġwork":1873,"ortal":1874,"Ġhearts":1875,"Ġmarriage":1876,"Ġhonest":1877,"Ġtrib":1878,"ĠHastings":1879,"ĠGloucester":1880,"DELLO":1881,"Ġbosom":1882,"ĠBuckingham":1883,"ĠBIONDELLO":1884,"folk":1885,"iers":1886,"of":1887,"pare":1888,"sc":1889,"the":1890,"Ġve":1891,"Ġtit":1892,"Ġten":1893,"Ġtale":1894,"Ġwhi":1895,"Ġwonder":1896,"Ġwidow":1897,"Ġbit":1898,"ones":1899,"Ġdish":1900,"ench":1901,"ĠCap":1902,"rah":1903,"ĠThus":1904,"Ġsuit":1905,"Ġseek":1906,"ĠNorfolk":1907,"Ġwomen":1908,"Ġharm":1909,"Ġcompany":1910,"Ġguilt":1911,"Ġhighness":1912,"Ġstrike":1913,"Ġdraw":1914,"Ġattend":1915,"Ġserve":1916,"Ġvoices":1917,"Ġsomething":1918,"Ġmurder":1919,"ĠVols":1920,"OP":1921,"Tw":1922,"hood":1923,"most":1924,"Ġag":1925,"Ġsing":1926,"Ġsat":1927,"Ġside":1928,"Ġwatch":1929,"Ġbur":1930,"ished":1931,"Ġcor":1932,"ĠAUM":1933,"ĠCA":1934,"ander":1935,"Ġloving":1936,"Ġknew":1937,"ERLE":1938,"Ġdidst":1939,"Ġdist":1940,"Ġgentlemen":1941,"ĠANTON":1942,"Ġpret":1943,"Ġheavens":1944,"Ġchange":1945,"ĠLucentio":1946,"Ġstrength":1947,"ĠAUMERLE":1948,"ĠANTONIO":1949,"ALO":1950,"ZALO":1951,"Ġact":1952,"Ġsake":1953,"Ġwast":1954,"ĠTran":1955,"ĠWel":1956,"ĠBian":1957,"ents":1958,"Ġstir":1959,"ĠLanc":1960,"ĠGON":1961,"ĠPet":1962,"ĠMarry":1963,"Ġaff":1964,"Ġcloud":1965,"Ġpleasure":1966,"Ġenter":1967,"Ġbrave":1968,"ethinks":1969,"Ġenemies":1970,"ĠLancaster":1971,"ĠGONZALO":1972,"bly":1973,"fid":1974,"ives":1975,"Ġty":1976,"Ġsign":1977,"Ġmusic":1978,"Ġwa":1979,"rew":1980,"Ġbreat":1981,"Ġdr":1982,"Ġpra":1983,"Ġpie":1984,"Ġpale":1985,"Ġgar":1986,"Ġgates":1987,"ĠSw":1988,"ĠHER":1989,"ĠMost":1990,"oose":1991,"ĠLady":1992,"ĠPom":1993,"ils":1994,"Ġnext":1995,"Ġcoming":1996,"Ġthanks":1997,"Ġext":1998,"ĠUnt":1999,"Ġclose":2000,"Ġsouls":2001,"Ġbegg":2002,"Ġcourse":2003,"Ġwithal":2004,"Ġchee":2005,"ceived":2006,"Ġsuffer":2007,"Ġdeliver":2008,"Ġtitle":2009,"ĠBianca":2010,"DIO":2011,"be":2012,"vour":2013,"Ġsk":2014,"Ġsick":2015,"ĠAu":2016,"oward":2017,"Ġbecome":2018,"etch":2019,"Ġforg":2020,"ĠCh":2021,"ĠCLIFF":2022,"Ġweak":2023,"Ġeither":2024,"Ġlips":2025,"Ġthemselves":2026,"els":2027,"Ġjest":2028,"Ġplain":2029,"Ġabs":2030,"Ġrich":2031,"AUDIO":2032,"Ġgrie":2033,"ĠCLAUDIO":2034,"claim":2035,"MIONE":2036,"Ġpatience":2037,"ĠRich":2038,"Ġorder":2039,"ĠPetru":2040,"ĠHERMIONE":2041,"ĠCLIFFORD":2042,"DA":2043,"kes":2044,"ses":2045,"Ġac":2046,"Ġsame":2047,"Ġwis":2048,"Ġwall":2049,"rest":2050,"ready":2051,"isf":2052,"lly":2053,"Ġcast":2054,"arry":2055,"irth":2056,"ĠBes":2057,"ĠSince":2058,"chio":2059,"ĠMake":2060,"Ġforb":2061,"Ġforget":2062,"ĠCall":2063,"oof":2064,"ries":2065,"ĠLORD":2066,"Ġreg":2067,"race":2068,"urp":2069,"east":2070,"ĠEL":2071,"Ġven":2072,"Ġsworn":2073,"Ġworse":2074,"Ġprop":2075,"Ġtook":2076,"ĠJO":2077,"Ġpoison":2078,"Ġalong":2079,"ĠBeing":2080,"Ġbreast":2081,"Ġconsul":2082,"RANDA":2083,"twas":2084,"twere":2085,"Ġcheer":2086,"Ġvirtue":2087,"Ġmerry":2088,"ĠMIRANDA":2089,"Ġfurther":2090,"ĠTranio":2091,"fidius":2092,"ĠAufidius":2093,"ĠPetruchio":2094,"HN":2095,"SON":2096,"cy":2097,"lst":2098,"mit":2099,"Ġta":2100,"Ġmouth":2101,"Ġwed":2102,"Ġwise":2103,"Ġbad":2104,"Ġbook":2105,"Ġfour":2106,"Ġdu":2107,"Ġdire":2108,"Ġcr":2109,"Ġgave":2110,"Ġemb":2111,"Ġred":2112,"Ġliber":2113,"Ġsoft":2114,"ĠRe":2115,"vern":2116,"Ġself":2117,"rust":2118,"ions":2119,"Ġloves":2120,"rows":2121,"ally":2122,"Ġenc":2123,"Ġoffice":2124,"Ġalready":2125,"Ġwrit":2126,"Ġmove":2127,"ĠHereford":2128,"Ġbegin":2129,"Ġconsent":2130,"ĠAlas":2131,"Ġgiven":2132,"Ġrequest":2133,"Ġdangerous":2134,"Ġbattle":2135,"Ġissue":2136,"Ġmorning":2137,"ĠJOHN":2138,"fter":2139,"mond":2140,"mber":2141,"nk":2142,"pes":2143,"rist":2144,"uous":2145,"used":2146,"Ġburn":2147,"orge":2148,"Ġfrown":2149,"Ġfeast":2150,"Ġlad":2151,"Ġpay":2152,"ĠTower":2153,"anus":2154,"Ġgro":2155,"ats":2156,"ĠYes":2157,"each":2158,"Ġsucc":2159,"Ġneither":2160,"icer":2161,"Ġblack":2162,"Ġgoes":2163,"Ġsons":2164,"Ġexp":2165,"Ġfoe":2166,"ĠBefore":2167,"Ġtrou":2168,"dden":2169,"Ġsoldiers":2170,"Ġwounds":2171,"ĠSpeak":2172,"Ġbetween":2173,"Ġquarrel":2174,"Ġsatisf":2175,"ĠRichmond":2176,"NT":2177,"chan":2178,"ging":2179,"gare":2180,"ires":2181,"ures":2182,"Ġest":2183,"hem":2184,"Ġsigh":2185,"Ġmal":2186,"Ġbar":2187,"Ġbaw":2188,"Ġdro":2189,"Ġdark":2190,"Ġcase":2191,"Ġthri":2192,"aris":2193,"Ġhot":2194,"ĠAb":2195,"ĠAr":2196,"ots":2197,"owers":2198,"Ġoften":2199,"Ġhaving":2200,"ĠMust":2201,"Ġund":2202,"Ġspeech":2203,"Ġvict":2204,"Ġbless":2205,"empt":2206,"Ġthence":2207,"Ġpresence":2208,"TESBY":2209,"Ġpriv":2210,"Ġbride":2211,"Ġbrief":2212,"Ġservant":2213,"ĠUnless":2214,"ĠSuch":2215,"Ġwater":2216,"ĠBecause":2217,"ĠCATESBY":2218,"ĠWelcome":2219,"garet":2220,"ILI":2221,"oint":2222,"Ġmortal":2223,"Ġbow":2224,"Ġble":2225,"ona":2226,"Ġtown":2227,"Ġpen":2228,"Ġgot":2229,"Ġinter":2230,"irm":2231,"ĠBoth":2232,"ĠBapt":2233,"ĠSaint":2234,"Ġev":2235,"ĠLond":2236,"ĠTheir":2237,"alth":2238,"Ġsum":2239,"ĠKeep":2240,"ends":2241,"emn":2242,"Ġloved":2243,"Ġkings":2244,"cient":2245,"Ġwars":2246,"Ġflatter":2247,"ĠMargaret":2248,"ĠGREY":2249,"Ġmighty":2250,"Ġrespect":2251,"Ġcompl":2252,"Ġdread":2253,"Ġseems":2254,"Ġthrone":2255,"Ġvoice":2256,"Ġdeny":2257,"Ġspoke":2258,"ĠWhom":2259,"ĠCoriolanus":2260,"Ġvisit":2261,"ĠBaptist":2262,"ĠLondon":2263,"CA":2264,"IV":2265,"bed":2266,"eorge":2267,"ip":2268,"iant":2269,"so":2270,"ught":2271,"Ġaction":2272,"oun":2273,"Ġbro":2274,"Ġbab":2275,"Ġfra":2276,"ern":2277,"Ġcol":2278,"Ġcap":2279,"Ġhur":2280,"ĠBIAN":2281,"ourn":2282,"ĠLest":2283,"ĠGeorge":2284,"ided":2285,"ĠParis":2286,"ĠRIV":2287,"ĠEre":2288,"ĠDe":2289,"Ġsudden":2290,"Ġancient":2291,"Ġknock":2292,"Ġvow":2293,"Ġprot":2294,"Ġworship":2295,"Ġsafe":2296,"ired":2297,"ĠIsab":2298,"Ġprayers":2299,"ainted":2300,"Ġappear":2301,"Ġprincely":2302,"Ġchamber":2303,"Ġbuy":2304,"Ġdeeds":2305,"Ġpromise":2306,"Ġbitter":2307,"Ġdishon":2308,"ILIA":2309,"ĠBaptista":2310,"ĠBIANCA":2311,"ĠRIVERS":2312,"BOW":2313,"ls":2314,"lish":2315,"now":2316,"nown":2317,"ura":2318,"Ġign":2319,"Ġfres":2320,"Ġfetch":2321,"Ġcreat":2322,"Ġcross":2323,"Ġcoward":2324,"Ġlim":2325,"esh":2326,"essed":2327,"Ġopp":2328,"Ġpu":2329,"otion":2330,"stand":2331,"ated":2332,"right":2333,"ĠGAU":2334,"Ġreb":2335,"urch":2336,"ĠRoman":2337,"cks":2338,"Ġang":2339,"Ġviol":2340,"antage":2341,"oney":2342,"Ġkingdom":2343,"Ġsac":2344,"Ġflesh":2345,"Ġrage":2346,"Ġprepare":2347,"Ġheads":2348,"Ġscorn":2349,"Ġappro":2350,"Ġlead":2351,"ĠStand":2352,"Ġwitness":2353,"Ġtriump":2354,"Ġpresently":2355,"Ġpatient":2356,"Ġlament":2357,"Ġvaliant":2358,"ĠELBOW":2359,"Ġsuccess":2360,"Ġbawd":2361,"ĠGAUNT":2362,"GUE":2363,"UR":2364,"bit":2365,"ler":2366,"mand":2367,"sper":2368,"to":2369,"xford":2370,"Ġ3":2371,"Ġcle":2372,"Ġlack":2373,"Ġlab":2374,"Ġthrow":2375,"Ġow":2376,"Ġpit":2377,"ĠTY":2378,"Ġgall":2379,"Ġins":2380,"ĠBl":2381,"ĠHort":2382,"ĠMON":2383,"ĠMerc":2384,"Ġforward":2385,"Ġeat":2386,"ĠOxford":2387,"Ġkins":2388,"urs":2389,"iff":2390,"ĠThink":2391,"antag":2392,"Ġprin":2393,"Ġprithee":2394,"Ġwash":2395,"Ġunw":2396,"aken":2397,"Ġoffer":2398,"Ġleast":2399,"Ġslave":2400,"Ġscar":2401,"Ġmoon":2402,"ensio":2403,"Ġfaults":2404,"Ġsecret":2405,"Ġdefend":2406,"TAGUE":2407,"Ġtribunes":2408,"Ġdrink":2409,"ĠChrist":2410,"ĠHortensio":2411,"ĠMONTAGUE":2412,"ac":2413,"aul":2414,"ees":2415,"king":2416,"po":2417,"ued":2418,"vest":2419,"ying":2420,"Ġid":2421,"Ġsur":2422,"Ġmid":2423,"ines":2424,"Ġben":2425,"Ġfie":2426,"Ġdest":2427,"Ġnay":2428,"Ġthither":2429,"Ġhide":2430,"Ġocc":2431,"athar":2432,"Ġbeast":2433,"ĠWhi":2434,"ley":2435,"ĠHark":2436,"ĠCon":2437,"ĠGre":2438,"als":2439,"ĠDoth":2440,"ĠKathar":2441,"thumber":2442,"host":2443,"asters":2444,"feit":2445,"aked":2446,"pey":2447,"ĠJo":2448,"Ġalmost":2449,"Ġslaughter":2450,"ully":2451,"ĠNorthumber":2452,"Ġsmall":2453,"Ġchance":2454,"Ġdepart":2455,"Ġsubjects":2456,"Ġpossess":2457,"Ġexecution":2458,"Ġdamn":2459,"ĠBohem":2460,"Ġpretty":2461,"ĠPompey":2462,"ĠKatharina":2463,"ĠNorthumberland":2464,"GILIA":2465,"ITA":2466,"RGILIA":2467,"hind":2468,"Ġut":2469,"Ġtear":2470,"Ġwert":2471,"Ġbase":2472,"Ġbirth":2473,"Ġfill":2474,"Ġfond":2475,"Ġcertain":2476,"arl":2477,"Ġpain":2478,"ĠAd":2479,"ĠAm":2480,"inger":2481,"Ġinno":2482,"ĠBr":2483,"ĠHold":2484,"Ġform":2485,"ĠCa":2486,"Ġeas":2487,"Ġstru":2488,"Ġliving":2489,"ĠPeace":2490,"ĠPERD":2491,"ĠPaul":2492,"ĠEx":2493,"rum":2494,"Ġfavour":2495,"Ġgoodly":2496,"Ġusurp":2497,"cience":2498,"Ġproceed":2499,"Ġhadst":2500,"umb":2501,"Ġwhence":2502,"Ġtrump":2503,"Ġoffence":2504,"Ġhearing":2505,"Ġperform":2506,"perate":2507,"ledge":2508,"ĠVIRGILIA":2509,"Ġglad":2510,"Ġvirtuous":2511,"Ġawhile":2512,"Ġquickly":2513,"then":2514,"ĠSweet":2515,"ural":2516,"ĠBohemia":2517,"ĠPERDITA":2518,"LY":2519,"ding":2520,"dge":2521,"eem":2522,"iest":2523,"over":2524,"ror":2525,"ze":2526,"Ġtor":2527,"Ġay":2528,"Ġshi":2529,"Ġmatch":2530,"Ġmild":2531,"Ġwalk":2532,"Ġwild":2533,"isure":2534,"orth":2535,"Ġfier":2536,"ities":2537,"Ġca":2538,"omes":2539,"Ġinj":2540,"eds":2541,"edant":2542,"ĠSLY":2543,"Ġforsw":2544,"Ġur":2545,"raw":2546,"ĠYea":2547,"Ġshad":2548,"Ġknee":2549,"Ġkneel":2550,"astard":2551,"Ġblows":2552,"Ġworst":2553,"Ġquiet":2554,"ĠOff":2555,"ustom":2556,"Ġgreater":2557,"Ġaffection":2558,"Ġpleas":2559,"ĠMARIAN":2560,"Ġleisure":2561,"ĠStay":2562,"Ġslew":2563,"force":2564,"Ġtreason":2565,"Ġlawful":2566,"Ġchurch":2567,"Ġweeping":2568,"Ġsoldier":2569,"Ġdeserved":2570,"Ġguilty":2571,"ĠIsabel":2572,"Ġangry":2573,"ĠMARIANA":2574,"awn":2575,"fully":2576,"gg":2577,"gue":2578,"joy":2579,"ked":2580,"med":2581,"ual":2582,"vol":2583,"zen":2584,"Ġap":2585,"Ġsho":2586,"Ġmed":2587,"Ġmod":2588,"Ġwon":2589,"read":2590,"Ġfam":2591,"Ġfled":2592,"ony":2593,"Ġcitizen":2594,"Ġlist":2595,"Ġyear":2596,"eness":2597,"arn":2598,"aring":2599,"ĠTw":2600,"Ġbehind":2601,"ĠWatch":2602,"ĠWhile":2603,"Ġhap":2604,"ĠBel":2605,"Ġmeasure":2606,"ĠST":2607,"ĠMen":2608,"ĠMist":2609,"Ġem":2610,"adua":2611,"ĠOut":2612,"ĠGrem":2613,"ĠGrum":2614,"Ġreign":2615,"ĠPAR":2616,"ĠPadua":2617,"Ġsole":2618,"Ġdoom":2619,"Ġnob":2620,"ames":2621,"rupt":2622,"Ġourselves":2623,"Ġneck":2624,"Ġshows":2625,"ended":2626,"Ġshepherd":2627,"Ġblow":2628,"Ġgovern":2629,"Ġwouldst":2630,"Ġletter":2631,"Ġletters":2632,"Ġunc":2633,"Ġunk":2634,"Ġspeaks":2635,"Ġmarch":2636,"ighb":2637,"Ġcontin":2638,"osition":2639,"Ġneeds":2640,"ĠEnglish":2641,"Ġsentence":2642,"Ġprisoner":2643,"Ġbanishment":2644,"Ġsecond":2645,"Ġsense":2646,"Ġcondemn":2647,"ĠPlantag":2648,"Ġbecause":2649,"Ġclouds":2650,"Ġbreathe":2651,"Ġforbid":2652,"Ġliberty":2653,"Ġencoun":2654,"Ġladies":2655,"Ġtrouble":2656,"Ġdishonour":2657,"Ġignor":2658,"ĠGremio":2659,"ĠGrumio":2660,"ĠPARIS":2661,"ĠPlantagen":2662,":'":2663,"aves":2664,"acle":2665,"dle":2666,"oor":2667,"oss":2668,"rous":2669,"ĠX":2670,"Ġsort":2671,"Ġmut":2672,"Ġmorrow":2673,"ndred":2674,"Ġbig":2675,"Ġbones":2676,"Ġfive":2677,"ĠInt":2678,"Ġdry":2679,"Ġcru":2680,"Ġlan":2681,"Ġlaid":2682,"Ġpet":2683,"ĠToo":2684,"ĠTru":2685,"ĠAnt":2686,"Ġheld":2687,"vel":2688,"ster":2689,"ingly":2690,"Ġoft":2691,"ators":2692,"Ġnote":2693,"ĠHea":2694,"Ġstor":2695,"Ġsteal":2696,"ĠFear":2697,"ĠGaunt":2698,"Ġref":2699,"ider":2700,"Ġlived":2701,"Ġaside":2702,"Ġdog":2703,"Ġnoise":2704,"Ġseat":2705,"iles":2706,"Ġvain":2707,"Ġgrand":2708,"Ġproclaim":2709,"Ġprosper":2710,"Ġrough":2711,"Ġabove":2712,"ize":2713,"ĠPETER":2714,"Ġappare":2715,"Ġremain":2716,"Ġlonger":2717,"Ġwomb":2718,"Ġconscience":2719,"ĠSirrah":2720,"Ġchoose":2721,"Ġobey":2722,"Ġtemp":2723,"Ġdrunk":2724,"Ġgolden":2725,"Ġdispatch":2726,"Ġjoin":2727,"Ġhundred":2728,"Ġpiece":2729,"Ġvictory":2730,"ointed":2731,"Ġfresh":2732,"ĠPlantagenet":2733,"!--":2734,"TIUS":2735,"WIS":2736,"aith":2737,"bb":2738,"ban":2739,"ffect":2740,"hn":2741,"iled":2742,"ny":2743,"rim":2744,"ts":2745,"ulet":2746,"Ġtent":2747,"Ġsch":2748,"Ġsus":2749,"Ġsaint":2750,"inius":2751,"Ġbroke":2752,"Ġfat":2753,"Ġfine":2754,"erle":2755,"Ġdrown":2756,"Ġlen":2757,"Ġlow":2758,"Ġlau":2759,"Ġlust":2760,"Ġthreat":2761,"ĠARI":2762,"vey":2763,"Ġbend":2764,"set":2765,"Ġind":2766,"ceit":2767,"lease":2768,"ety":2769,"ĠSc":2770,"ĠHear":2771,"ĠMe":2772,"ĠCould":2773,"ĠCates":2774,"Ġeffect":2775,"Ġyourselves":2776,"Ġsto":2777,"Ġstood":2778,"Ġstain":2779,"Ġsteel":2780,"ĠLAR":2781,"Ġrevere":2782,"asion":2783,"ĠPer":2784,"Ġdoing":2785,"ĠEn":2786,"ĠEarl":2787,"ĠDOR":2788,"Ġknees":2789,"ular":2790,"Ġconqu":2791,"icious":2792,"ieu":2793,"Ġshed":2794,"Ġblessed":2795,"Ġknowledge":2796,"Ġswift":2797,"ounds":2798,"Ġsaf":2799,"ume":2800,"Ġexc":2801,"Ġdesperate":2802,"Ġwarm":2803,"Ġslander":2804,"Ġprecious":2805,"Ġbears":2806,"ĠLEWIS":2807,"Ġentertain":2808,"Ġpride":2809,"Ġpurs":2810,"uthor":2811,"Ġglory":2812,"Ġdouble":2813,"Ġwoes":2814,"posed":2815,"Ġlands":2816,"Ġobed":2817,"Ġcounter":2818,"Ġtowards":2819,"Ġdespair":2820,"ĠCapulet":2821,"ĠUnto":2822,"Ġforgot":2823,"Ġwisdom":2824,"Ġvenge":2825,"Ġlabour":2826,"Ġkinsman":2827,"Ġcitizens":2828,"ĠWatchman":2829,"Ġencounter":2830,"ĠXI":2831,"ĠARIEL":2832,"ĠCatesby":2833,"ĠLARTIUS":2834,";'":2835,"PSON":2836,"bray":2837,"gment":2838,"iance":2839,"ude":2840,"uff":2841,"vail":2842,"Ġauthor":2843,"Ġsour":2844,"Ġmount":2845,"Ġmethinks":2846,"Ġmoney":2847,"Ġmasters":2848,"rent":2849,"rence":2850,"Ġbastard":2851,"Ġfe":2852,"Ġfru":2853,"Ġfought":2854,"Ġfew":2855,"itors":2856,"Ġdance":2857,"Ġdied":2858,"Ġdeter":2859,"Ġcorn":2860,"Ġcapt":2861,"Ġpun":2862,"ĠAum":2863,"Ġhealth":2864,"owbray":2865,"ang":2866,"Ġhair":2867,"irl":2868,"ĠSAM":2869,"ĠMowbray":2870,"ĠCons":2871,"ĠCUR":2872,"Ġeld":2873,"Ġstud":2874,"ĠFri":2875,"ĠPedant":2876,"estion":2877,"ease":2878,"ĠDis":2879,"Ġseal":2880,"Ġsever":2881,"iful":2882,"ility":2883,"cted":2884,"Ġmanner":2885,"ĠVer":2886,"Ġconst":2887,"Ġuns":2888,"Ġquoth":2889,"Ġplant":2890,"Ġenjoy":2891,"ĠWithin":2892,"Ġran":2893,"Ġalive":2894,"Ġabro":2895,"Ġfoll":2896,"Ġhonours":2897,"Ġflowers":2898,"ations":2899,"Ġdeadly":2900,"Ġcontr":2901,"Ġwhite":2902,"Ġkept":2903,"Ġremed":2904,"Ġarmy":2905,"Ġlordship":2906,"ontent":2907,"TIS":2908,"Ġguest":2909,"Ġguess":2910,"Ġunderstand":2911,"Ġpromised":2912,"Ġwretched":2913,"Ġbeggar":2914,"Ġcheeks":2915,"ĠKeeper":2916,"ĠJohn":2917,"Ġstruck":2918,"Ġdeterm":2919,"ĠAumerle":2920,"ĠSAMPSON":2921,"ĠCURTIS":2922,"'re":2923,":--":2924,"AT":2925,"BU":2926,"GON":2927,"LEY":2928,"bury":2929,"den":2930,"ne":2931,"Ġtry":2932,"Ġteach":2933,"head":2934,"Ġaid":2935,"ounce":2936,"Ġsim":2937,"reed":2938,"orious":2939,"ited":2940,"Ġcred":2941,"Ġcried":2942,"Ġpal":2943,"Ġgent":2944,"utio":2945,"ĠMine":2946,"Ġstars":2947,"ĠLew":2948,"ĠFl":2949,"Ġliest":2950,"ash":2951,"ĠPut":2952,"ĠPardon":2953,"ĠPoor":2954,"Ġdeg":2955,"Ġdemand":2956,"ĠNe":2957,"Ġshake":2958,"ament":2959,"ĠEX":2960,"ĠEither":2961,"Ġseven":2962,"Ġherself":2963,"Ġspent":2964,"Ġneighb":2965,"Ġwhether":2966,"Ġamong":2967,"ief":2968,"Ġgoing":2969,"ppy":2970,"Ġprov":2971,"osed":2972,"Ġtruly":2973,"Ġrot":2974,"Ġofficer":2975,"Ġbrothers":2976,"Ġearly":2977,"ways":2978,"Ġhonourable":2979,"ĠANTI":2980,"Ġcalls":2981,"Ġmoved":2982,"Ġaccount":2983,"ĠCitizens":2984,"Ġkindred":2985,"Ġpriest":2986,"Ġguard":2987,"Ġcharity":2988,"Ġfoolish":2989,"Ġhumble":2990,"Ġdreams":2991,"Ġgreet":2992,"Ġvalour":2993,"Ġjudge":2994,"Ġwretch":2995,"Ġextrem":2996,"Ġsummer":2997,"Ġtriumph":2998,"ĠMercutio":2999,"Ġscarce":3000,"Ġcruel":3001,"ĠHeaven":3002,"BURY":3003,"GONUS":3004,"ĠLewis":3005,"ĠANTIGONUS":3006,"BR":3007,"CLIFF":3008,"house":3009,"lp":3010,"mble":3011,"pir":3012,"under":3013,"Ġwail":3014,"ining":3015,"Ġba":3016,"Ġfart":3017,"Ġfaint":3018,"ites":3019,"Ġdin":3020,"Ġdwell":3021,"Ġcir":3022,"Ġcustom":3023,"Ġyea":3024,"Ġthro":3025,"Ġpack":3026,"Ġga":3027,"Ġbeha":3028,"leep":3029,"ĠBet":3030,"ĠBid":3031,"ĠHarry":3032,"ĠMade":3033,"ĠMusic":3034,"Ġforce":3035,"Ġweary":3036,"Ġease":3037,"ĠOnce":3038,"Ġstone":3039,"ĠFaith":3040,"ask":3041,"ĠRAT":3042,"roy":3043,"ĠNever":3044,"Ġbutcher":3045,"ify":3046,"Ġanon":3047,"Ġfaire":3048,"Ġours":3049,"though":3050,"Ġvie":3051,"arted":3052,"Ġblame":3053,"Ġthereof":3054,"Ġunf":3055,"Ġprovost":3056,"Ġdism":3057,"Ġenvy":3058,"Ġrise":3059,"Ġthinks":3060,"Ġwherefore":3061,"Ġrid":3062,"ĠMars":3063,"Ġparty":3064,"Ġadd":3065,"Ġothers":3066,"Ġimag":3067,"ians":3068,"Ġtrial":3069,"Ġkindness":3070,"Ġchast":3071,"Ġsubst":3072,"Ġbids":3073,"Ġfellows":3074,"Ġbright":3075,"Ġglass":3076,"Ġmiser":3077,"ĠAlack":3078,"Ġcrave":3079,"ĠCominius":3080,"Ġwinter":3081,"Ġcondition":3082,"Ġmonth":3083,"Ġhung":3084,"Ġminister":3085,"ĠVolsces":3086,"Twas":3087,"Ġwalls":3088,"Ġsatisfied":3089,"Ġmalice":3090,"Ġprivate":3091,"Ġidle":3092,"Ġbenef":3093,"orthy":3094,"Ġlaugh":3095,"Ġvengeance":3096,"Ġabroad":3097,"BRA":3098,"ĠRATCLIFF":3099,"Ġview":3100,"BAL":3101,"HOP":3102,"ners":3103,"ope":3104,"vious":3105,"with":3106,"Ġver":3107,"Ġwre":3108,"Ġwag":3109,"Ġwench":3110,"incentio":3111,"rees":3112,"Ġbite":3113,"orous":3114,"Ġfirm":3115,"Ġdull":3116,"Ġcorse":3117,"Ġlest":3118,"enes":3119,"Ġhol":3120,"ĠAfter":3121,"vell":3122,"omas":3123,"Ġgown":3124,"ating":3125,"Ġbef":3126,"Ġincl":3127,"cell":3128,"utland":3129,"ĠBarn":3130,"Ġmeat":3131,"ĠHence":3132,"ĠMant":3133,"ĠMethinks":3134,"Ġformer":3135,"ĠFie":3136,"Ġrel":3137,"Ġreceived":3138,"ident":3139,"ĠPeter":3140,"ĠPlease":3141,"Ġdeal":3142,"ĠRutland":3143,"amp":3144,"ĠDes":3145,"ĠThomas":3146,"Ġsport":3147,"Ġvice":3148,"Ġvile":3149,"Ġshore":3150,"Ġshrew":3151,"ĠVincentio":3152,"Ġconcl":3153,"Ġconvey":3154,"Ġblind":3155,"Ġgod":3156,"ANLEY":3157,"allow":3158,"Ġarri":3159,"Ġunb":3160,"Ġunl":3161,"Ġunp":3162,"Ġmayst":3163,"Ġquite":3164,"Ġquestion":3165,"eless":3166,"icked":3167,"Ġhonesty":3168,"Ġfoes":3169,"Ġroot":3170,"ĠLords":3171,"ĠUnder":3172,"Ġflower":3173,"Ġafford":3174,"lock":3175,"Ġtongues":3176,"Ġcounten":3177,"Ġsmo":3178,"ailor":3179,"Ġcover":3180,"Ġchanged":3181,"rench":3182,"ĠShow":3183,"Ġhumour":3184,"Ġswords":3185,"Ġboot":3186,"ISHOP":3187,"Ġdeputy":3188,"ĠCorioli":3189,"Ġjudgment":3190,"scal":3191,"Ġtyrant":3192,"Ġacqu":3193,"Ġprophe":3194,"Ġevil":3195,"ĠTYBAL":3196,"ĠWhilst":3197,"Ġeasy":3198,"ĠPaulina":3199,"ĠSTANLEY":3200,"ĠTrue":3201,"Ġschool":3202,"Ġexcuse":3203,"Ġfruit":3204,"ĠMantua":3205,"ĠTYBALT":3206,"'?":3207,"AK":3208,"HOM":3209,"acher":3210,"ek":3211,"ead":3212,"ered":3213,"mon":3214,"roth":3215,"rate":3216,"rison":3217,"she":3218,"und":3219,"vish":3220,"woman":3221,"Ġtaken":3222,"Ġwither":3223,"Ġwicked":3224,"Ġbrow":3225,"Ġbrows":3226,"Ġfain":3227,"Ġfeed":3228,"Ġfinger":3229,"ĠInd":3230,"llo":3231,"Ġdust":3232,"Ġcure":3233,"Ġthunder":3234,"Ġpains":3235,"ĠTut":3236,"ĠTHOM":3237,"anley":3238,"omer":3239,"Ġgrown":3240,"Ġgross":3241,"Ġgift":3242,"Ġghost":3243,"Ġgirl":3244,"att":3245,"ĠWilt":3246,"ĠSic":3247,"Ġstab":3248,"Ġstop":3249,"Ġstoop":3250,"ĠLo":3251,"ĠLove":3252,"ENBURY":3253,"idings":3254,"ract":3255,"Ġdoor":3256,"Ġnose":3257,"ĠDost":3258,"arden":3259,"Ġspe":3260,"Ġspake":3261,"Ġspring":3262,"ilia":3263,"Ġnecess":3264,"Ġknave":3265,"Ġproof":3266,"Ġsheep":3267,"Ġblest":3268,"ement":3269,"Ġsirrah":3270,"Ġtherein":3271,"AND":3272,"cians":3273,"ĠJove":3274,"Ġdisg":3275,"Ġalways":3276,"ursed":3277,"Ġleaves":3278,"Ġtwice":3279,"aper":3280,"Ġprevent":3281,"Ġprevail":3282,"Ġperceive":3283,"Ġrepent":3284,"ĠStanley":3285,"ĠBRAK":3286,"Ġtraitors":3287,"twixt":3288,"Ġimport":3289,"Ġundert":3290,"Ġwrongs":3291,"Ġburied":3292,"ealous":3293,"Ġreasons":3294,"Ġsenate":3295,"Ġgreen":3296,"Ġchoice":3297,"azed":3298,"Ġsilence":3299,"Ġjoint":3300,"Ġdivine":3301,"ĠPrince":3302,"Ġwhilst":3303,"Ġaffair":3304,"Ġtyran":3305,"ĠBesides":3306,"Ġembrace":3307,"ĠArt":3308,"ĠDeath":3309,"Ġcreature":3310,"Ġsacred":3311,"Ġoccasion":3312,"Ġinnocent":3313,"ĠBrother":3314,"ĠCaius":3315,"Ġfiery":3316,"ĠMistress":3317,"Ġleng":3318,"Ġsafety":3319,"ĠFriar":3320,"ĠVerona":3321,"Ġremedy":3322,"Ġcirc":3323,"ĠTHOMAS":3324,"ĠBRAKENBURY":3325,"?'":3326,"GOR":3327,"RESS":3328,"VERD":3329,"ault":3330,"eld":3331,"jo":3332,"loy":3333,"mn":3334,"nat":3335,"oly":3336,"oard":3337,"pin":3338,"sp":3339,"shi":3340,"sic":3341,"Ġes":3342,"Ġed":3343,"Ġtast":3344,"Ġavo":3345,"Ġship":3346,"Ġsits":3347,"Ġwent":3348,"Ġwings":3349,"inous":3350,"Ġbark":3351,"orry":3352,"Ġfury":3353,"itol":3354,"itted":3355,"Ġdri":3356,"Ġcre":3357,"Ġlar":3358,"enius":3359,"ĠTurn":3360,"ĠAE":3361,"ĠApo":3362,"anch":3363,"omp":3364,"Ġgarden":3365,"Ġbelly":3366,"Ġinform":3367,"edious":3368,"ĠSomer":3369,"Ġused":3370,"Ġweeds":3371,"Ġele":3372,"Ġeag":3373,"Ġemp":3374,"ĠOVERD":3375,"Ġstones":3376,"Ġrenown":3377,"Ġdec":3378,"Ġdeceived":3379,"Ġshar":3380,"ĠDER":3381,"Ġallow":3382,"Ġanger":3383,"Ġloath":3384,"Ġloyal":3385,"ardine":3386,"hant":3387,"Ġfares":3388,"Ġknight":3389,"ctise":3390,"Ġshr":3391,"Ġshri":3392,"othing":3393,"Ġoracle":3394,"ĠMyself":3395,"Ġmayor":3396,"hysic":3397,"elve":3398,"Ġhollow":3399,"Ġsail":3400,"Ġplot":3401,"Ġplague":3402,"ONE":3403,"Ġfright":3404,"unning":3405,"ĠWithout":3406,"Ġround":3407,"Ġrob":3408,"Ġrock":3409,"Ġwherein":3410,"Ġdesign":3411,"ĠWherein":3412,"aughters":3413,"STRESS":3414,"Ġadieu":3415,"Ġcommend":3416,"Ġprayer":3417,"Ġclaim":3418,"Ġplead":3419,"Ġtroth":3420,"aced":3421,"Ġrude":3422,"Ġsmile":3423,"Ġtreacher":3424,"Ġimprison":3425,"Ġcares":3426,"ĠGREGOR":3427,"Ġmaids":3428,"Ġdrawn":3429,"Ġwanton":3430,"Ġassist":3431,"unts":3432,"Ġtempt":3433,"Ġcondu":3434,"Ġdeserve":3435,"ĠMISTRESS":3436,"ĠHaving":3437,"Ġprofess":3438,"Ġdelight":3439,"Ġdespite":3440,"ĠPrithee":3441,"ĠCapitol":3442,"Ġpractise":3443,"Ġcheek":3444,"Ġabsence":3445,"Ġdrop":3446,"Ġbroken":3447,"Ġviolent":3448,"Ġutter":3449,"Ġtrumpets":3450,"ĠMenenius":3451,"Ġempt":3452,"Ġignorant":3453,"Ġlangu":3454,"Ġrotten":3455,"ĠBarnardine":3456,"Ġcountenance":3457,"ĠIndeed":3458,"ĠSomerset":3459,"ĠOVERDONE":3460,"ĠDERBY":3461,"ĠGREGORY":3462,"FORD":3463,"MON":3464,"XFORD":3465,"act":3466,"cha":3467,"draw":3468,"eous":3469,"mion":3470,"pet":3471,"Ġtune":3472,"Ġtidings":3473,"Ġtedious":3474,"held":3475,"Ġaim":3476,"Ġaught":3477,"Ġsix":3478,"Ġsens":3479,"Ġmotion":3480,"Ġwont":3481,"Ġwives":3482,"rehe":3483,"haps":3484,"Ġball":3485,"isa":3486,"ises":3487,"onounce":3488,"Ġdet":3489,"Ġdur":3490,"Ġdue":3491,"Ġcell":3492,"Ġcries":3493,"Ġnine":3494,"Ġnumber":3495,"Ġnames":3496,"Ġloud":3497,"esy":3498,"Ġthrust":3499,"Ġhit":3500,"Ġhid":3501,"Ġpin":3502,"Ġpil":3503,"Ġpair":3504,"Ġpawn":3505,"othe":3506,"Ġgain":3507,"semb":3508,"Ġinfect":3509,"cend":3510,"utes":3511,"iment":3512,"ĠSha":3513,"ĠSOM":3514,"ĠCousin":3515,"rious":3516,"ĠOXFORD":3517,"Ġstar":3518,"Ġstat":3519,"Ġsteed":3520,"Ġstock":3521,"Ġstuff":3522,"ĠLea":3523,"ĠGreat":3524,"Ġreceive":3525,"rand":3526,"ashi":3527,"ĠPre":3528,"ĠPol":3529,"ĠPisa":3530,"Ġasleep":3531,"Ġdew":3532,"Ġdeare":3533,"Ġdeposed":3534,"Ġones":3535,"ĠRes":3536,"ĠThree":3537,"ĠThurs":3538,"ĠKnow":3539,"ards":3540,"Ġvantage":3541,"ERIA":3542,"ĠVAL":3543,"Ġamb":3544,"ongs":3545,"Ġjealous":3546,"Ġshouldst":3547,"Ġproper":3548,"Ġenvious":3549,"Ġoutward":3550,"ĠRICHMON":3551,"Ġwhole":3552,"Ġoffend":3553,"Ġalas":3554,"Ġheav":3555,"Ġexcell":3556,"Ġearn":3557,"eeth":3558,"ĠMark":3559,"Ġmeaning":3560,"Ġchief":3561,"Ġbegins":3562,"Ġruin":3563,"ission":3564,"Ġresign":3565,"Ġtread":3566,"ethought":3567,"Ġbanished":3568,"Ġpassing":3569,"Ġpleased":3570,"Ġwoful":3571,"Ġdevise":3572,"Ġfollowers":3573,"Ġfools":3574,"ĠHermion":3575,"Ġadvise":3576,"Ġpersu":3577,"Ġhanging":3578,"Ġgives":3579,"Ġrememb":3580,"Ġawake":3581,"Ġborne":3582,"Ġsupper":3583,"Ġcarry":3584,"Ġlamb":3585,"aze":3586,"ĠRivers":3587,"Ġdisposition":3588,"Ġbecomes":3589,"Ġpossible":3590,"ERSET":3591,"Ġburthen":3592,"Ġgarments":3593,"Ġcastle":3594,"Ġexpress":3595,"change":3596,"Ġsighs":3597,"Ġthrive":3598,"Ġundone":3599,"Ġdreadful":3600,"Ġbabe":3601,"Ġcolour":3602,"Ġprotect":3603,"Ġpubl":3604,"Ġprepared":3605,"ĠChristian":3606,"ĠGrey":3607,"Ġdamned":3608,"Ġnobles":3609,"ĠInto":3610,"Ġstorm":3611,"Ġfatal":3612,"Ġauthority":3613,"Ġfollows":3614,"Ġsimple":3615,"Ġfarther":3616,"Ġthroat":3617,"ĠMusician":3618,"Ġbenefit":3619,"Ġaffairs":3620,"pinion":3621,"ĠApollo":3622,"ĠSOMERSET":3623,"ĠThursday":3624,"ĠVALERIA":3625,"ĠRICHMOND":3626,"ĠHermione":3627,"BH":3628,"HY":3629,"LIUS":3630,"SA":3631,"after":3632,"cing":3633,"eg":3634,"go":3635,"gle":3636,"iond":3637,"ron":3638,"thi":3639,"ub":3640,"yard":3641,"yond":3642,"Ġer":3643,"Ġir":3644,"Ġtort":3645,"Ġteeth":3646,"Ġsan":3647,"Ġsorry":3648,"Ġmurderer":3649,"Ġmourn":3650,"Ġwine":3651,"Ġwander":3652,"Ġband":3653,"Ġbond":3654,"erved":3655,"itude":3656,"Ġdaughters":3657,"Ġcal":3658,"Ġcam":3659,"Ġcens":3660,"Ġcunning":3661,"Ġlend":3662,"ene":3663,"enn":3664,"arch":3665,"Ġtop":3666,"Ġpaper":3667,"Ġphysic":3668,"ĠTailor":3669,"ĠABH":3670,"Ġgage":3671,"atsw":3672,"Ġbew":3673,"Ġbelike":3674,"Ġbeheld":3675,"ldom":3676,"eding":3677,"utation":3678,"ĠBUS":3679,"ĠBoy":3680,"ĠBona":3681,"ĠBiond":3682,"ĠHas":3683,"ĠMAMIL":3684,"ĠMOW":3685,"ĠMOP":3686,"Ġweight":3687,"Ġweap":3688,"ills":3689,"illing":3690,"Ġequ":3691,"enture":3692,"rib":3693,"Ġstore":3694,"Ġstep":3695,"ords":3696,"Ġlip":3697,"room":3698,"usion":3699,"Ġseas":3700,"iffe":3701,"Ġsup":3702,"run":3703,"Ġange":3704,"Ġlod":3705,"Ġspend":3706,"Ġspare":3707,"ello":3708,"ellow":3709,"hop":3710,"Ġvan":3711,"ORSON":3712,"ouses":3713,"Ġshut":3714,"ETER":3715,"Ġgoodness":3716,"ĠVery":3717,"Ġconj":3718,"ĠHelp":3719,"Ġsway":3720,"Ġbrook":3721,"Ġkingly":3722,"Ġunnat":3723,"ortion":3724,"Ġquit":3725,"imely":3726,"Ġdisd":3727,"Ġexile":3728,"Ġroom":3729,"Ġdesert":3730,"Ġgentlewoman":3731,"Ġflight":3732,"Ġtwelve":3733,"Ġaffect":3734,"Ġparts":3735,"Ġpartic":3736,"Ġrash":3737,"Ġadm":3738,"Ġprey":3739,"Ġperil":3740,"Ġperish":3741,"Ġperfect":3742,"Ġwrath":3743,"Ġtrans":3744,"Ġwhither":3745,"iteous":3746,"Ġuntil":3747,"loved":3748,"Ġintend":3749,"Ġlean":3750,"Ġlegs":3751,"orses":3752,"ĠStill":3753,"Ġkeeps":3754,"Ġaccess":3755,"Ġaccus":3756,"Ġaccuse":3757,"Ġprize":3758,"Ġchair":3759,"ixenes":3760,"Ġcourtesy":3761,"Ġhumbly":3762,"ounty":3763,"Ġadvantage":3764,"Ġcurst":3765,"Ġcrack":3766,"Ġspirits":3767,"Ġdenied":3768,"Ġdrum":3769,"ancy":3770,"Ġsilver":3771,"Ġbetwixt":3772,"place":3773,"Ġdelay":3774,"Ġresolve":3775,"Ġresolved":3776,"Ġcorrupt":3777,"Ġaccept":3778,"Ġwedding":3779,"Ġpenit":3780,"Ġhurt":3781,"Ġprotest":3782,"Ġclear":3783,"Ġowe":3784,"Ġforsworn":3785,"Ġshadow":3786,"ĠOfficer":3787,"Ġpleasant":3788,"ĠBelieve":3789,"Ġsolemn":3790,"Ġcontinue":3791,"Ġpetition":3792,"Ġthreaten":3793,"Ġconquer":3794,"Ġpunish":3795,"Ġseveral":3796,"Ġcontrary":3797,"Ġpalace":3798,"ĠEXETER":3799,"Ġneighbour":3800,"Ġdinner":3801,"Ġmiserable":3802,"BRAY":3803,"Ġspeci":3804,"Ġcircum":3805,"Ġtaste":3806,"Ġempty":3807,"ĠLeave":3808,"ĠPolixenes":3809,"Ġsanct":3810,"ĠABHORSON":3811,"atswain":3812,"ĠBUSHY":3813,"ĠBiondello":3814,"ĠMAMILLIUS":3815,"ĠMOWBRAY":3816,"ĠMOPSA":3817,"CH":3818,"RCH":3819,"af":3820,"aff":3821,"clock":3822,"dy":3823,"mity":3824,"oot":3825,"oke":3826,"ping":3827,"pic":3828,"rt":3829,"sing":3830,"tune":3831,"ung":3832,"urious":3833,"Ġtut":3834,"Ġtable":3835,"hearted":3836,"Ġscept":3837,"Ġmiss":3838,"Ġmaking":3839,"Ġwot":3840,"Ġwood":3841,"Ġwol":3842,"Ġwond":3843,"rease":3844,"Ġbot":3845,"Ġbas":3846,"Ġbare":3847,"Ġbud":3848,"ising":3849,"Ġfle":3850,"Ġfro":3851,"Ġfee":3852,"Ġfashi":3853,"erve":3854,"Ġdi":3855,"Ġdign":3856,"Ġdies":3857,"Ġdag":3858,"Ġcup":3859,"Ġcalm":3860,"Ġnaked":3861,"Ġyonder":3862,"ency":3863,"aries":3864,"Ġhunt":3865,"Ġhorses":3866,"Ġopinion":3867,"Ġtomb":3868,"Ġpi":3869,"Ġpure":3870,"Ġpainted":3871,"Ġpiteous":3872,"ĠARCH":3873,"Ġheed":3874,"ote":3875,"ane":3876,"Ġgate":3877,"Ġbeyond":3878,"Ġbeloved":3879,"sequ":3880,"irg":3881,"uted":3882,"ĠBear":3883,"ĠBAL":3884,"ĠBISHOP":3885,"Ġmend":3886,"ĠMight":3887,"ĠCo":3888,"Ġweigh":3889,"ourish":3890,"Ġstory":3891,"ĠFather":3892,"ĠFrench":3893,"Ġreward":3894,"ĠPERC":3895,"urance":3896,"Ġdebt":3897,"ĠRight":3898,"ĠRep":3899,"ĠNone":3900,"ĠNap":3901,"ĠNothing":3902,"amed":3903,"Ġsep":3904,"Ġseest":3905,"Ġfail":3906,"Ġfaces":3907,"que":3908,"Ġcomb":3909,"Ġcomple":3910,"Ġpronounce":3911,"Ġamen":3912,"outs":3913,"oler":3914,"Ġhatred":3915,"Ġswallow":3916,"Ġhereafter":3917,"Ġtheirs":3918,"pping":3919,"Ġarg":3920,"igence":3921,"Ġquench":3922,"Ġhopes":3923,"Ġseeing":3924,"cio":3925,"cian":3926,"umble":3927,"Ġdiss":3928,"Ġexpect":3929,"Ġfolly":3930,"Ġrose":3931,"Ġlooking":3932,"ustice":3933,"Ġslow":3934,"Ġfairly":3935,"Ġcalled":3936,"Ġado":3937,"Ġclo":3938,"Ġperpet":3939,"Ġways":3940,"THAS":3941,"Ġwhore":3942,"Ġremains":3943,"lesome":3944,"Ġintent":3945,"Ġcrowns":3946,"Ġcourage":3947,"Ġhark":3948,"Ġwits":3949,"Ġends":3950,"Ġendure":3951,"ĠOnly":3952,"Ġtremb":3953,"Ġneedful":3954,"Ġjoys":3955,"Ġjoyful":3956,"Ġservices":3957,"Ġmistake":3958,"Ġfortunes":3959,"Ġbodies":3960,"Ġnatural":3961,"Ġhappiness":3962,"Ġmisery":3963,"Ġchide":3964,"Ġturns":3965,"Ġattempt":3966,"Ġadvance":3967,"Ġcurses":3968,"Ġassurance":3969,"Ġdiscover":3970,"Ġdiscontent":3971,"Ġcommanded":3972,"Ġsenators":3973,"Ġsometime":3974,"Ġsometimes":3975,"Ġdares":3976,"Ġtemper":3977,"Ġwounded":3978,"Ġspoken":3979,"ĠMayor":3980,"Ġmarket":3981,"cape":3982,"Ġwaters":3983,"Ġinstruct":3984,"Ġinstrument":3985,"Ġcursed":3986,"Ġterror":3987,"Ġshortly":3988,"Ġwhiles":3989,"Ġgriev":3990,"ĠBeseech":3991,"Ġduked":3992,"Ġgroan":3993,"Ġcomplain":3994,"Ġcolours":3995,"Ġprinces":3996,"Ġprincess":3997,"ĠTwo":3998,"Ġgovernment":3999,"Ġapparel":4000,"Ġobedience":4001,"Ġcounterfeit":4002,"Ġcredit":4003,"ĠMarshal":4004,"Ġwreck":4005,"Ġundertake":4006,"Ġlarge":4007,"ĠAEd":4008,"Ġemploy":4009,"Ġsharp":4010,"Ġlanguage":4011,"Ġdurst":4012,"Ġexcellent":4013,"Ġremembrance":4014,"Ġpublic":4015,"Ġunnatural":4016,"picion":4017,"ĠBALTHAS":4018,"ĠPERCY":4019,"Ġdukedom":4020,"ĠBALTHASAR":4021,"?--":4022,"CAS":4023,"FOL":4024,"OS":4025,"afe":4026,"bow":4027,"born":4028,"dds":4029,"fer":4030,"gers":4031,"hor":4032,"lar":4033,"lic":4034,"oe":4035,"oved":4036,"same":4037,"uary":4038,"val":4039,"vours":4040,"whe":4041,"what":4042,"wise":4043,"ys":4044,"Ġtest":4045,"Ġtap":4046,"hest":4047,"Ġsink":4048,"Ġsins":4049,"Ġmill":4050,"Ġmag":4051,"Ġmaint":4052,"Ġmile":4053,"ination":4054,"happy":4055,"isper":4056,"ishop":4057,"Ġfame":4058,"ita":4059,"Ġcease":4060,"Ġnought":4061,"Ġled":4062,"ences":4063,"Ġthief":4064,"Ġhost":4065,"Ġhouses":4066,"Ġodd":4067,"Ġodds":4068,"Ġpol":4069,"Ġpowers":4070,"ĠTit":4071,"ĠApp":4072,"ĠAmen":4073,"strous":4074,"Ġgru":4075,"atic":4076,"Ġbeth":4077,"ĠWidow":4078,"ĠWorthy":4079,"Ġhaz":4080,"Ġmere":4081,"Ġmeant":4082,"ĠSet":4083,"Ġisle":4084,"Ġisland":4085,"ĠCal":4086,"Ġweather":4087,"ourage":4088,"Ġeast":4089,"Ġits":4090,"Ġstol":4091,"Ġkin":4092,"ĠLe":4093,"ĠLay":4094,"ĠLong":4095,"ĠFour":4096,"Ġrepe":4097,"Ġrealm":4098,"idence":4099,"ĠPost":4100,"ĠPage":4101,"ĠRet":4102,"ĠRem":4103,"ĠRos":4104,"ĠROS":4105,"Ġshape":4106,"ĠEl":4107,"ĠDear":4108,"ĠDorse":4109,"uses":4110,"Ġseize":4111,"ified":4112,"ĠThose":4113,"Ġspite":4114,"Ġknife":4115,"Ġvirg":4116,"Ġshun":4117,"ants":4118,"arts":4119,"Ġcomest":4120,"Ġmanners":4121,"Ġconc":4122,"ieved":4123,"Ġblock":4124,"Ġblush":4125,"ared":4126,"arent":4127,"olute":4128,"Ġbrings":4129,"Ġung":4130,"Ġworn":4131,"Ġqual":4132,"Ġjourn":4133,"ĠYoung":4134,"akest":4135,"Ġfathers":4136,"ument":4137,"ĠJack":4138,"Ġenmity":4139,"Ġring":4140,"Ġalter":4141,"ĠSold":4142,"Ġrogue":4143,"Ġfriendly":4144,"Ġflies":4145,"ĠMarch":4146,"Ġslay":4147,"tled":4148,"Ġadvers":4149,"Ġwrite":4150,"Ġtrade":4151,"Ġscope":4152,"Ġscene":4153,"Ġcontract":4154,"Ġapprehe":4155,"Ġarmour":4156,"Ġuntimely":4157,"ctions":4158,"ression":4159,"Ġimm":4160,"Ġrepair":4161,"Ġintell":4162,"Ġconsider":4163,"Ġrule":4164,"Ġleads":4165,"Ġtrick":4166,"Ġslept":4167,"Ġaccord":4168,"Ġcompan":4169,"Ġcompass":4170,"Ġpurcha":4171,"Ġcock":4172,"Ġbrain":4173,"Ġseeming":4174,"Ġimposs":4175,"Ġglorious":4176,"Ġpassion":4177,"Ġpassage":4178,"Ġmaiden":4179,"Ġhateful":4180,"Ġstrew":4181,"Ġinstant":4182,"uteous":4183,"Ġserves":4184,"Ġboar":4185,"Ġwants":4186,"ĠGentlemen":4187,"ĠNORFOL":4188,"Ġwinds":4189,"Ġcontented":4190,"Ġfreely":4191,"Ġgrey":4192,"Ġdrums":4193,"Ġmonstrous":4194,"ĠLucio":4195,"Ġcholer":4196,"Ġgrows":4197,"Ġdeserves":4198,"ĠWhither":4199,"Ġgranted":4200,"Ġincrease":4201,"Ġresolution":4202,"noon":4203,"Ġterms":4204,"ĠBoatswain":4205,"Ġvex":4206,"ĠVolsce":4207,"Ġwait":4208,"Ġpraise":4209,"Ġsky":4210,"Ġabsent":4211,"Ġvenom":4212,"Ġdirect":4213,"chance":4214,"Ġdrops":4215,"Ġprivile":4216,"Ġrespected":4217,"Ġframe":4218,"Ġoppos":4219,"Ġapproach":4220,"ĠExeter":4221,"Ġtorment":4222,"Ġunknown":4223,"Ġprosperous":4224,"Ġsuspicion":4225,"Ġreverend":4226,"ĠDORCAS":4227,"Ġcaptain":4228,"Ġdegree":4229,"Ġbehalf":4230,"Ġsmooth":4231,"Ġtreacherous":4232,"Ġearnest":4233,"Ġcamest":4234,"Ġdisdain":4235,"Ġparticular":4236,"Ġsceptre":4237,"Ġdagger":4238,"ĠNaples":4239,"ĠROSS":4240,"ĠDorset":4241,"ĠNORFOLK":4242,"GH":4243,"God":4244,"NS":4245,"RR":4246,"SET":4247,"aily":4248,"fl":4249,"fret":4250,"iven":4251,"iate":4252,"just":4253,"kin":4254,"mend":4255,"ped":4256,"uce":4257,"Ġing":4258,"Ġtame":4259,"Ġtaught":4260,"Ġtide":4261,"Ġable":4262,"Ġsqu":4263,"Ġsouth":4264,"Ġmor":4265,"Ġmessenger":4266,"iny":4267,"rey":4268,"reland":4269,"reme":4270,"Ġbird":4271,"Ġbury":4272,"Ġfig":4273,"Ġfurn":4274,"ĠIreland":4275,"Ġdig":4276,"Ġdress":4277,"Ġdying":4278,"Ġdaily":4279,"Ġchat":4280,"Ġcatch":4281,"Ġlark":4282,"Ġthorn":4283,"Ġthird":4284,"Ġpurse":4285,"Ġparent":4286,"ĠALO":4287,"ances":4288,"omans":4289,"Ġglo":4290,"ature":4291,"atcl":4292,"atience":4293,"Ġbeard":4294,"ĠBer":4295,"ĠBra":4296,"ĠBring":4297,"Ġmelt":4298,"ĠSe":4299,"ĠSon":4300,"ĠSave":4301,"ĠHunts":4302,"ĠMil":4303,"ĠCame":4304,"Ġwept":4305,"Ġwealth":4306,"ades":4307,"ric":4308,"ricians":4309,"Ġstamp":4310,"ĠLau":4311,"ĠFERD":4312,"ĠFroth":4313,"ĠGhost":4314,"Ġrevol":4315,"rain":4316,"raced":4317,"INAND":4318,"Ġlion":4319,"ales":4320,"aline":4321,"ĠRomans":4322,"ĠRatcl":4323,"ĠYe":4324,"Ġwilling":4325,"Ġwillingly":4326,"Ġnobl":4327,"Ġnobly":4328,"ĠDown":4329,"Ġseason":4330,"andal":4331,"Ġsuck":4332,"Ġspr":4333,"Ġspur":4334,"Ġvows":4335,"Ġvault":4336,"Ġconce":4337,"Ġconceit":4338,"Ġamazed":4339,"ember":4340,"Ġswell":4341,"Ġlovely":4342,"Ġunless":4343,"Ġworthi":4344,"elt":4345,"Ġjew":4346,"Ġmuster":4347,"Ġshoulder":4348,"Ġprovo":4349,"Ġdisper":4350,"Ġens":4351,"Ġenforce":4352,"Ġruth":4353,"Ġalike":4354,"Ġaboard":4355,"Ġabhor":4356,"Ġroar":4357,"Ġtells":4358,"Ġwhereof":4359,"Ġwarlike":4360,"Ġflatt":4361,"Ġfears":4362,"Ġhasty":4363,"Ġgreatest":4364,"Ġrap":4365,"Ġraise":4366,"Ġrascal":4367,"Ġadver":4368,"Ġcommitted":4369,"Ġcommission":4370,"Ġclam":4371,"Ġperj":4372,"Ġperforce":4373,"Ġwrought":4374,"Ġpress":4375,"Ġbearing":4376,"Ġnorth":4377,"liament":4378,"Ġwhisper":4379,"ĠThanks":4380,"Ġbegun":4381,"Ġpeers":4382,"ĠStri":4383,"Ġwitch":4384,"Ġaccused":4385,"Ġputs":4386,"Ġkindly":4387,"Ġcounty":4388,"Ġsmiles":4389,"Ġfinds":4390,"Ġbraw":4391,"Ġcharged":4392,"Ġafternoon":4393,"Ġholds":4394,"ĠGREEN":4395,"Ġstreets":4396,"Ġsoundly":4397,"Ġbuild":4398,"Ġadvice":4399,"Ġboots":4400,"Ġcurrent":4401,"Ġsends":4402,"Ġhanged":4403,"Ġrevenged":4404,"Ġassured":4405,"Ġgiving":4406,"Ġdarest":4407,"ĠSupp":4408,"Ġsupposed":4409,"ĠPlay":4410,"Ġrecom":4411,"Ġrecord":4412,"Ġsilent":4413,"Ġinstruments":4414,"Ġhardly":4415,"Ġprofit":4416,"Ġparliament":4417,"Ġveins":4418,"Ġsingle":4419,"Ġwaste":4420,"Ġaffli":4421,"Ġpieces":4422,"Ġgarland":4423,"ĠPomfret":4424,"ĠUntil":4425,"Ġgrieve":4426,"Ġforbear":4427,"Ġgroans":4428,"Ġestate":4429,"Ġthrice":4430,"ĠAbout":4431,"erns":4432,"Ġrebell":4433,"ĠTYRR":4434,"Ġdestroy":4435,"Ġurged":4436,"Ġaffections":4437,"Ġfamous":4438,"Ġhaply":4439,"Ġlusty":4440,"ĠDORSET":4441,"ĠConspir":4442,"Ġelder":4443,"Ġstudy":4444,"Ġconstant":4445,"Ġgently":4446,"Ġarrived":4447,"ĠSicilia":4448,"Ġavoid":4449,"Ġimprisonment":4450,"Ġconduct":4451,"Ġprotector":4452,"Ġspecial":4453,"Ġcircumst":4454,"Ġsanctuary":4455,"Ġperpetual":4456,"Ġgrievous":4457,"ĠAEdile":4458,"Ġmaintain":4459,"ĠTitus":4460,"Ġbethink":4461,"ĠRosaline":4462,"Ġvirgin":4463,"Ġjourney":4464,"ĠSoldier":4465,"NSO":4466,"ĠALONSO":4467,"ĠHuntsman":4468,"ĠFERDINAND":4469,"ĠRatcliff":4470,"ĠTYRREL":4471,";--":4472,"Th":4473,"aly":4474,"aces":4475,"con":4476,"dig":4477,"eat":4478,"erer":4479,"father":4480,"fall":4481,"faced":4482,"gl":4483,"gar":4484,"grim":4485,"groom":4486,"ib":4487,"ipp":4488,"ipe":4489,"iving":4490,"ienn":4491,"ker":4492,"law":4493,"lanch":4494,"more":4495,"mory":4496,"nal":4497,"pr":4498,"pass":4499,"rrel":4500,"ser":4501,"time":4502,"ties":4503,"uing":4504,"uch":4505,"upt":4506,"vior":4507,"zz":4508,"Ġz":4509,"Ġtall":4510,"Ġtarry":4511,"Ġtask":4512,"Ġach":4513,"Ġapt":4514,"Ġaunt":4515,"Ġsy":4516,"Ġsal":4517,"Ġsire":4518,"Ġsalt":4519,"Ġsnow":4520,"Ġmir":4521,"Ġmult":4522,"Ġwing":4523,"Ġwide":4524,"Ġwhip":4525,"Ġwaking":4526,"Ġbade":4527,"isbury":4528,"Ġfi":4529,"Ġfood":4530,"Ġfrow":4531,"Ġfun":4532,"Ġfeet":4533,"Ġfires":4534,"Ġfancy":4535,"erity":4536,"erby":4537,"llen":4538,"itation":4539,"onci":4540,"Ġdow":4541,"Ġdim":4542,"Ġdiffe":4543,"Ġcat":4544,"Ġcher":4545,"Ġcaught":4546,"Ġcere":4547,"Ġnail":4548,"Ġlin":4549,"Ġlent":4550,"Ġyond":4551,"Ġyoke":4552,"esar":4553,"essel":4554,"enant":4555,"Ġhor":4556,"Ġhie":4557,"Ġhorn":4558,"Ġoak":4559,"Ġpot":4560,"Ġport":4561,"Ġpound":4562,"Ġpier":4563,"ĠTar":4564,"ĠAcc":4565,"vet":4566,"omen":4567,"ative":4568,"semble":4569,"Ġinqu":4570,"Ġhabit":4571,"etite":4572,"eder":4573,"utenant":4574,"ĠBen":4575,"ĠBus":4576,"Ġmelanch":4577,"ĠSm":4578,"ĠSal":4579,"ĠSix":4580,"ĠHo":4581,"ĠMin":4582,"ĠMakes":4583,"Ġfors":4584,"Ġforced":4585,"Ġforfeit":4586,"ĠCond":4587,"ourse":4588,"Ġevent":4589,"aded":4590,"rif":4591,"Ġsting":4592,"Ġstro":4593,"Ġstout":4594,"Ġstret":4595,"Ġstroke":4596,"ĠFo":4597,"Ġrece":4598,"Ġreck":4599,"Ġrede":4600,"Ġrejo":4601,"rac":4602,"Ġsore":4603,"Ġsooth":4604,"Ġdeceit":4605,"ĠRather":4606,"roll":4607,"ested":4608,"ams":4609,"aming":4610,"ĠDare":4611,"ĠDraw":4612,"ĠDerby":4613,"Ġsell":4614,"Ġsees":4615,"Ġalliance":4616,"Ġsue":4617,"ruction":4618,"Ġsple":4619,"Ġknaves":4620,"Ġvill":4621,"Ġvessel":4622,"ulf":4623,"ulate":4624,"nty":4625,"Ġmanif":4626,"ĠVienn":4627,"Ġconfe":4628,"icy":4629,"Ġblunt":4630,"Ġsaying":4631,"Ġune":4632,"Ġunst":4633,"Ġunhappy":4634,"Ġunjust":4635,"ignty":4636,"orted":4637,"LIS":4638,"Ġgraves":4639,"Ġdisple":4640,"Ġwholesome":4641,"Ġoffended":4642,"Ġalack":4643,"Ġalthough":4644,"harge":4645,"Ġabide":4646,"Ġexerc":4647,"Ġexchange":4648,"ĠNoble":4649,"ages":4650,"Ġdesires":4651,"Ġdescend":4652,"Ġflood":4653,"ĠMarian":4654,"Ġslaves":4655,"Ġtwain":4656,"Ġbetray":4657,"Ġbetimes":4658,"Ġnewly":4659,"Ġparting":4660,"Ġpartly":4661,"Ġrare":4662,"Ġraised":4663,"Ġadmit":4664,"Ġcommons":4665,"Ġstanding":4666,"Ġclim":4667,"Ġwrink":4668,"ullus":4669,"Ġcontempt":4670,"Ġappeal":4671,"Ġappetite":4672,"Ġbegu":4673,"Ġimage":4674,"Ġrust":4675,"Ġruled":4676,"Ġhousehold":4677,"Ġsets":4678,"ĠProceed":4679,"osing":4680,"Ġresist":4681,"forth":4682,"forced":4683,"Ġaccident":4684,"Ġprick":4685,"Ġpowerful":4686,"Ġchase":4687,"Ġcharac":4688,"clam":4689,"Ġsmell":4690,"Ġtreasure":4691,"Ġtremble":4692,"Ġbrace":4693,"Ġhelm":4694,"Ġmistrust":4695,"iety":4696,"Ġbesides":4697,"Ġnative":4698,"Ġboys":4699,"Ġdevotion":4700,"Ġpatricians":4701,"Ġweeps":4702,"Ġbelow":4703,"Ġfalsehood":4704,"Ġsovereignty":4705,"Ġvirtues":4706,"ouchs":4707,"ĠTyrrel":4708,"Ġassure":4709,"Ġsecure":4710,"Ġmerit":4711,"Ġoaths":4712,"Ġfaithful":4713,"ĠCannot":4714,"Ġdefence":4715,"Ġsurely":4716,"Ġreconci":4717,"Ġpoints":4718,"Ġfeeling":4719,"Ġbeholding":4720,"Twere":4721,"Ġago":4722,"Ġagree":4723,"Ġcorre":4724,"Ġprett":4725,"Ġbreathed":4726,"Ġsickness":4727,"Ġforgive":4728,"Ġweakness":4729,"Ġregal":4730,"Ġregard":4731,"Ġmouths":4732,"Ġbooks":4733,"Ġbarren":4734,"Ġbridegroom":4735,"Ġcomplaint":4736,"soever":4737,"Ġpitch":4738,"Ġbeasts":4739,"ĠConf":4740,"ĠCaesar":4741,"Ġtrumpet":4742,"eeming":4743,"Ġshield":4744,"Ġforswear":4745,"Ġunkind":4746,"ĠAnti":4747,"Ġapparent":4748,"Ġtempest":4749,"Ġsuspect":4750,"Ġstopp":4751,"Ġreverence":4752,"Ġentertainment":4753,"Ġobedient":4754,"Ġdetermined":4755,"Ġfairer":4756,"Ġfairest":4757,"Ġsubstit":4758,"Ġholp":4759,"Ġstabb":4760,"Ġdisgrace":4761,"Ġtyranny":4762,"Ġlength":4763,"shire":4764,"Ġrenowned":4765,"Ġballad":4766,"Ġpilgrim":4767,"Ġequal":4768,"Ġpenitent":4769,"Ġfashion":4770,"Ġdignity":4771,"Ġcomplex":4772,"ĠFourth":4773,"Ġaccording":4774,"Ġimpossible":4775,"ĠMilan":4776,"Ġrebellion":4777,"Ġfroward":4778,"Ġmelancholy":4779,"ĠSalisbury":4780,"Ġredeem":4781,"ĠVienna":4782,"Ġconference":4783,".--":4784,"Ay":4785,"DR":4786,"EOM":4787,"IT":4788,"UGH":4789,"bear":4790,"bod":4791,"bation":4792,"com":4793,"cate":4794,"cary":4795,"cceed":4796,"dita":4797,"eve":4798,"fold":4799,"gn":4800,"iam":4801,"long":4802,"mong":4803,"maid":4804,"ns":4805,"nes":4806,"rs":4807,"rat":4808,"rough":4809,"tic":4810,"teen":4811,"tles":4812,"uit":4813,"uries":4814,"wife":4815,"weal":4816,"xe":4817,"Ġtim":4818,"Ġtres":4819,"Ġtakes":4820,"Ġtail":4821,"Ġtaunt":4822,"Ġaxe":4823,"Ġmood":4824,"Ġmess":4825,"Ġmirth":4826,"Ġwid":4827,"Ġwest":4828,"Ġwake":4829,"Ġwink":4830,"Ġwakes":4831,"inct":4832,"Ġbon":4833,"Ġbir":4834,"Ġbuck":4835,"ories":4836,"Ġfish":4837,"erves":4838,"iter":4839,"itable":4840,"onst":4841,"onation":4842,"Ġcost":4843,"Ġchall":4844,"Ġciv":4845,"Ġnap":4846,"Ġline":4847,"Ġlap":4848,"Ġyes":4849,"Ġthir":4850,"Ġthick":4851,"Ġthread":4852,"Ġope":4853,"Ġtoad":4854,"Ġtoil":4855,"Ġtooth":4856,"Ġped":4857,"Ġpee":4858,"Ġpause":4859,"ĠTime":4860,"ĠTush":4861,"ĠTullus":4862,"ĠAf":4863,"ĠAw":4864,"ĠADR":4865,"othes":4866,"stery":4867,"aning":4868,"omach":4869,"Ġgaze":4870,"ĠWIL":4871,"sell":4872,"Ġmystery":4873,"Ġinfection":4874,"Ġmemory":4875,"imble":4876,"ĠSound":4877,"ĠSomet":4878,"ĠHim":4879,"ĠHail":4880,"ĠMany":4881,"ĠCle":4882,"ĠCur":4883,"ĠCry":4884,"ĠCounty":4885,"illy":4886,"Ġwithdraw":4887,"herit":4888,"Ġste":4889,"Ġstick":4890,"Ġstumble":4891,"ĠLart":4892,"ĠLie":4893,"ĠFRO":4894,"ĠGet":4895,"Ġreap":4896,"Ġlift":4897,"Ġliken":4898,"ases":4899,"Ġdeb":4900,"Ġdeck":4901,"Ġdecl":4902,"ĠRa":4903,"Ġsham":4904,"earer":4905,"ĠEach":4906,"ushes":4907,"Ġseiz":4908,"Ġseldom":4909,"ĠThrough":4910,"Ġsuper":4911,"Ġsuitor":4912,"Ġsullen":4913,"Ġsucceed":4914,"ĠKn":4915,"Ġlover":4916,"Ġlovest":4917,"Ġspl":4918,"Ġspy":4919,"Ġspit":4920,"Ġspect":4921,"Ġfact":4922,"Ġfawn":4923,"Ġnegle":4924,"Ġknot":4925,"Ġvar":4926,"Ġvol":4927,"ulch":4928,"seless":4929,"Ġmanage":4930,"ĠVen":4931,"ĠVal":4932,"ĠVillain":4933,"ical":4934,"icles":4935,"Ġhated":4936,"LOUGH":4937,"Ġswain":4938,"Ġbran":4939,"ĠWhether":4940,"Ġjot":4941,"cies":4942,"Ġproclam":4943,"Ġdisgu":4944,"Ġdeaths":4945,"Ġeng":4946,"Ġheartily":4947,"Ġmarks":4948,"irect":4949,"Ġoffic":4950,"ĠSoft":4951,"Ġabused":4952,"Ġdescent":4953,"Ġripe":4954,"Ġride":4955,"Ġleague":4956,"Ġwarri":4957,"Ġslip":4958,"Ġgreatness":4959,"ĠBehold":4960,"Ġbred":4961,"ĠItaly":4962,"Ġrain":4963,"Ġrail":4964,"Ġheavenly":4965,"Ġclothes":4966,"Ġsweeter":4967,"Ġperhaps":4968,"Ġscold":4969,"Ġscandal":4970,"ĠAnon":4971,"Ġappointed":4972,"Ġwhit":4973,"Ġremorse":4974,"Ġremove":4975,"Ġremoved":4976,"Ġbegan":4977,"Ġrepose":4978,"Ġharsh":4979,"Ġkeeper":4980,"Ġaccursed":4981,"Ġyounger":4982,"Ġyoungest":4983,"ĠCLEOM":4984,"Ġsubtle":4985,"Ġdearly":4986,"ĠWilliam":4987,"Ġcoff":4988,"Ġrights":4989,"Ġminds":4990,"Ġconfirm":4991,"Ġmischance":4992,"Ġsorrows":4993,"Ġcareless":4994,"Ġmeeting":4995,"Ġlesser":4996,"Ġobject":4997,"ĠUncle":4998,"Ġcounc":4999,"Ġgriefs":5000,"Ġhuman":5001,"Ġadventure":5002,"Ġserved":5003,"Ġretire":5004,"Ġcountrymen":5005,"Ġcurt":5006,"Ġgrat":5007,"Ġhangs":5008,"Ġcraves":5009,"Ġcraft":5010,"Ġstranger":5011,"Ġwindows":5012,"Ġbeauteous":5013,"ĠDidst":5014,"Ġyielded":5015,"ĠCommend":5016,"Ġsupply":5017,"Ġcommonweal":5018,"Ġmonument":5019,"Ġsights":5020,"Ġgrowing":5021,"Ġsuffic":5022,"Ġheirs":5023,"ĠHappy":5024,"Ġtrusty":5025,"Ġinstruction":5026,"Ġvisage":5027,"Ġstronger":5028,"Ġexecuted":5029,"Ġincen":5030,"Ġinfant":5031,"Ġforeign":5032,"Ġvel":5033,"Ġburst":5034,"Ġplainly":5035,"Ġabsolute":5036,"Ġfourteen":5037,"Ġdirection":5038,"Ġredress":5039,"Ġselfsame":5040,"Ġwriting":5041,"Ġfrowns":5042,"Ġsatisfy":5043,"Ġestim":5044,"Ġservants":5045,"Ġblem":5046,"Ġbabes":5047,"Ġtriumphant":5048,"Ġgallant":5049,"Ġoccup":5050,"Ġexecutioner":5051,"ĠAmong":5052,"Ġinnoc":5053,"Ġfierce":5054,"Ġshadows":5055,"Ġpleasing":5056,"Ġmodest":5057,"Ġmodesty":5058,"Ġuncles":5059,"Ġignorance":5060,"Ġbigger":5061,"Ġrefuse":5062,"banished":5063,"ĠPerdita":5064,"Ġfeather":5065,"Ġdetermine":5066,"Ġextremity":5067,"ĠBetw":5068,"ĠBetter":5069,"Ġdismal":5070,"Ġchaste":5071,"Ġwager":5072,"Ġshrewd":5073,"Ġacquaint":5074,"Ġprophet":5075,"Ġedge":5076,"Ġeagle":5077,"Ġshroud":5078,"othecary":5079,"Ġsteeds":5080,"Ġdearest":5081,"Ġiron":5082,"Ġtorture":5083,"Ġwondrous":5084,"Ġsepulch":5085,"Ġtrembling":5086,"Ġpolicy":5087,"Ġrepeal":5088,"ĠReturn":5089,"Ġadversaries":5090,"Ġpurchase":5091,"Ġprivilege":5092,"Ġopposite":5093,"Ġconceal":5094,"Ġflatterer":5095,"ĠConspirator":5096,"Ġdowry":5097,"Ġpierce":5098,"ĠBushy":5099,"Ġstrokes":5100,"ĠFollow":5101,"Ġexercise":5102,"ĠMariana":5103,"ouchsafe":5104,"Ġtrespass":5105,"Ġcivil":5106,"Ġthirty":5107,"ĠADRIAN":5108,"ĠWILLOUGH":5109,"ĠLartius":5110,"ĠFROTH":5111,"ĠCLEOMENES":5112,"ĠWILLOUGHBY":5113,"EP":5114,"NARD":5115,"ax":5116,"app":5117,"but":5118,"bble":5119,"bio":5120,"cest":5121,"cue":5122,"ded":5123,"ders":5124,"fellow":5125,"gy":5126,"ghan":5127,"hrew":5128,"iar":5129,"iver":5130,"ips":5131,"mas":5132,"master":5133,"nken":5134,"nicious":5135,"oon":5136,"pardon":5137,"rity":5138,"ratch":5139,"sha":5140,"son":5141,"some":5142,"sire":5143,"sop":5144,"tom":5145,"vive":5146,"vied":5147,"we":5148,"Ġeter":5149,"Ġtou":5150,"Ġtro":5151,"Ġtig":5152,"Ġah":5153,"Ġale":5154,"Ġages":5155,"oubt":5156,"Ġsn":5157,"Ġsings":5158,"Ġsought":5159,"Ġmat":5160,"Ġmain":5161,"Ġmil":5162,"Ġmethought":5163,"Ġwore":5164,"Ġward":5165,"inate":5166,"Ġbill":5167,"Ġbore":5168,"Ġbag":5169,"Ġbrown":5170,"Ġborrow":5171,"ision":5172,"orough":5173,"Ġfard":5174,"Ġfant":5175,"Ġfran":5176,"Ġfret":5177,"Ġfix":5178,"Ġfreed":5179,"ĠIm":5180,"ĠImp":5181,"ering":5182,"itt":5183,"ital":5184,"itiff":5185,"Ġdate":5186,"Ġdower":5187,"Ġcrow":5188,"Ġnet":5189,"Ġnest":5190,"Ġnice":5191,"Ġnumb":5192,"Ġnupt":5193,"Ġlur":5194,"Ġlance":5195,"Ġlower":5196,"Ġluck":5197,"Ġlying":5198,"Ġyon":5199,"esu":5200,"enge":5201,"Ġthin":5202,"Ġthie":5203,"Ġthirst":5204,"Ġthumb":5205,"Ġhom":5206,"Ġhind":5207,"Ġhig":5208,"Ġhire":5209,"Ġhoney":5210,"Ġomit":5211,"Ġtomorrow":5212,"Ġpear":5213,"Ġpath":5214,"Ġpage":5215,"Ġpaid":5216,"ĠAp":5217,"Ġheat":5218,"Ġheels":5219,"owl":5220,"ingers":5221,"ann":5222,"Ġgid":5223,"atri":5224,"atest":5225,"Ġbere":5226,"ĠWr":5227,"ĠWit":5228,"ĠWed":5229,"ĠWife":5230,"ĠWoe":5231,"sey":5232,"Ġink":5233,"Ġhare":5234,"Ġhaught":5235,"cels":5236,"ayed":5237,"ĠBre":5238,"ĠBur":5239,"ĠBAR":5240,"ĠSit":5241,"ĠSur":5242,"ĠSend":5243,"Ġnoted":5244,"ĠHang":5245,"chief":5246,"ĠMaking":5247,"ĠMethought":5248,"Ġforty":5249,"keley":5250,"ĠCast":5251,"oops":5252,"hern":5253,"rible":5254,"ĠOh":5255,"ĠOld":5256,"Ġstale":5257,"Ġstern":5258,"Ġstomach":5259,"ĠLic":5260,"ĠFal":5261,"ĠFind":5262,"ĠFair":5263,"ĠGu":5264,"ĠGree":5265,"ĠGrace":5266,"raid":5267,"rage":5268,"INE":5269,"Ġlivery":5270,"Ġliking":5271,"ĠPri":5272,"ĠPerc":5273,"Ġdece":5274,"Ġdeaf":5275,"ĠRUT":5276,"Ġshare":5277,"Ġshapes":5278,"Ġwills":5279,"Ġdove":5280,"Ġdogs":5281,"Ġdozen":5282,"ĠEly":5283,"ĠEscal":5284,"Ġbutt":5285,"ĠDel":5286,"ushing":5287,"Ġsuits":5288,"Ġhers":5289,"Ġanointed":5290,"Ġshallow":5291,"ilth":5292,"ilence":5293,"Ġneat":5294,"Ġvent":5295,"Ġshook":5296,"Ġshines":5297,"Ġupright":5298,"Ġgoods":5299,"Ġprime":5300,"ĠVau":5301,"Ġconceive":5302,"Ġamiss":5303,"ending":5304,"icate":5305,"iege":5306,"Ġblast":5307,"Ġgodd":5308,"ĠFortune":5309,"Ġsirs":5310,"ares":5311,"ola":5312,"Ġthereby":5313,"ept":5314,"eping":5315,"Ġswore":5316,"Ġsweat":5317,"Ġorn":5318,"Ġarrest":5319,"Ġlets":5320,"Ġunm":5321,"Ġunse":5322,"Ġunfe":5323,"Ġworm":5324,"Ġgrain":5325,"aker":5326,"Ġhop":5327,"Ġlikely":5328,"Ġprocess":5329,"ueen":5330,"Ġsav":5331,"Ġmadness":5332,"Ġplaces":5333,"iced":5334,"ĠJustice":5335,"Ġdisease":5336,"unate":5337,"Ġtrunk":5338,"Ġsomewhat":5339,"Ġrans":5340,"Ġoffices":5341,"Ġalms":5342,"harged":5343,"orney":5344,"Ġabuse":5345,"Ġexam":5346,"Ġlooked":5347,"Ġthinking":5348,"Ġtelling":5349,"Ġwhereon":5350,"ĠQueen":5351,"agues":5352,"ased":5353,"Ġflow":5354,"Ġflint":5355,"Ġflourish":5356,"ĠWherefore":5357,"ĠWhereto":5358,"AMUS":5359,"Ġfearing":5360,"bert":5361,"Ġbreed":5362,"Ġbread":5363,"Ġparted":5364,"Ġprep":5365,"Ġpernicious":5366,"Ġtroop":5367,"Ġtroops":5368,"Ġscatter":5369,"ĠAnother":5370,"ĠAnne":5371,"ainty":5372,"lied":5373,"Ġmoves":5374,"Ġcontro":5375,"Ġappea":5376,"ables":5377,"Ġbeget":5378,"Ġgraced":5379,"Ġreply":5380,"Ġreputation":5381,"Ġchildish":5382,"Ġrestra":5383,"ercing":5384,"cheth":5385,"Ġtrif":5386,"ĠProve":5387,"Ġbestow":5388,"Ġputting":5389,"ontes":5390,"Ġprice":5391,"Ġsubd":5392,"Ġbacks":5393,"Ġcoll":5394,"Ġtren":5395,"Ġforthwith":5396,"twill":5397,"Ġbank":5398,"Ġcheap":5399,"Ġcharm":5400,"ĠDoes":5401,"Ġlaws":5402,"Ġlightning":5403,"Ġroyalty":5404,"Ġhappily":5405,"Ġmisfort":5406,"Ġcareful":5407,"ĠShore":5408,"Ġcounsell":5409,"Ġcourteous":5410,"ĠAlthough":5411,"Ġstrive":5412,"Ġsleeping":5413,"Ġdrag":5414,"Ġadvised":5415,"Ġserp":5416,"Ġboast":5417,"Ġwanting":5418,"ĠAtt":5419,"Ġdiscourse":5420,"pense":5421,"Ġcram":5422,"Ġstraw":5423,"Ġbreathing":5424,"Ġsenseless":5425,"Ġbeaut":5426,"ĠDido":5427,"hamed":5428,"Ġgrew":5429,"Ġyields":5430,"Ġdrunken":5431,"Ġcarried":5432,"Ġspoil":5433,"Ġmonster":5434,"Ġmonarch":5435,"Ġmetal":5436,"Ġsooner":5437,"IDAMUS":5438,"Ġsadness":5439,"ĠHadst":5440,"ĠCambio":5441,"Ġwooing":5442,"Ġexecute":5443,"Ġminute":5444,"Ġsuitors":5445,"Ġburnt":5446,"Ġcoronation":5447,"Ġwaves":5448,"Ġpraises":5449,"Ġproportion":5450,"Ġliberal":5451,"Ġwritten":5452,"Ġburns":5453,"Ġburning":5454,"Ġblessing":5455,"Ġbleeding":5456,"Ġactions":5457,"Ġcaps":5458,"Ġbitterly":5459,"Ġlimit":5460,"Ġlimbs":5461,"Ġrebels":5462,"Ġviolence":5463,"Ġsacrif":5464,"Ġsuccession":5465,"Ġpitiful":5466,"acles":5467,"Ġmidnight":5468,"ĠWhiles":5469,"ĠGreen":5470,"Ġpossession":5471,"Ġtorch":5472,"Ġcaitiff":5473,"Ġinjury":5474,"Ġurge":5475,"Ġchurchyard":5476,"Ġmeddle":5477,"Ġnobility":5478,"Ġgrandsire":5479,"Ġsaints":5480,"ĠDisp":5481,"Ġrank":5482,"Ġguests":5483,"headed":5484,"Ġbehavior":5485,"Ġunfold":5486,"Ġdismiss":5487,"Ġimagine":5488,"Ġsubstance":5489,"Ġmonths":5490,"Ġhungry":5491,"Ġbefall":5492,"Ġinclined":5493,"Ġaffords":5494,"Ġcovert":5495,"ĠWiltshire":5496,"Ġnecessity":5497,"Ġprevented":5498,"Ġjoints":5499,"Ġtyrann":5500,"Ġlengthen":5501,"Ġescape":5502,"Ġshrift":5503,"Ġsenses":5504,"Ġstatue":5505,"Ġbands":5506,"Ġcensure":5507,"Ġweapon":5508,"ribunes":5509,"Ġsteps":5510,"Ġangel":5511,"Ġconjure":5512,"Ġtransp":5513,"Ġthreatening":5514,"Ġwolf":5515,"Ġbottom":5516,"ĠARCHIDAMUS":5517,"Ġtapster":5518,"ĠLeontes":5519,"ĠRemember":5520,"ĠElbow":5521,"Ġapprehend":5522,"Ġimmortal":5523,"Ġintelligence":5524,"Ġcompanion":5525,"Ġmoral":5526,"ĠBerkeley":5527,"ĠLaurence":5528,"Ġjewel":5529,"Ġdispersed":5530,"Ġruthless":5531,"Ġrapier":5532,"Ġclamour":5533,"ĠStrike":5534,"Ġzeal":5535,"Ġcherish":5536,"Ġstretch":5537,"Ġrejoice":5538,"Ġspleen":5539,"Ġcharacter":5540,"Ġprettiest":5541,"Ġbirds":5542,"Ġchallenge":5543,"Ġpeevish":5544,"Ġlikeness":5545,"Ġproclamation":5546,"Ġofficers":5547,"Ġwarriors":5548,"Ġcommonwealth":5549,"Ġvelvet":5550,"Ġsepulchre":5551,"EPH":5552,"NARDINE":5553,"Ġfardel":5554,"Ġnuptial":5555,"Ġgiddy":5556,"ĠBARNARDINE":5557,"ĠSurrey":5558,"ĠLicio":5559,"ĠRUTLAND":5560,"ĠEscalus":5561,"ĠVaughan":5562,"AG":5563,"ATER":5564,"BAN":5565,"CRO":5566,"EOR":5567,"IR":5568,"MOR":5569,"OT":5570,"TMOR":5571,"WATER":5572,"ZWATER":5573,"action":5574,"acy":5575,"aoler":5576,"bey":5577,"cri":5578,"cure":5579,"dal":5580,"foot":5581,"got":5582,"give":5583,"iban":5584,"kind":5585,"light":5586,"lace":5587,"oes":5588,"ront":5589,"roof":5590,"sen":5591,"shall":5592,"ta":5593,"that":5594,"vised":5595,"vided":5596,"wd":5597,"wing":5598,"which":5599,"yc":5600,"zed":5601,"Ġice":5602,"Ġought":5603,"Ġtard":5604,"Ġtack":5605,"Ġtree":5606,"Ġtied":5607,"Ġtired":5608,"Ġtakest":5609,"hen":5610,"here":5611,"Ġaud":5612,"Ġaged":5613,"oured":5614,"Ġsed":5615,"Ġsess":5616,"Ġsau":5617,"Ġsides":5618,"Ġsurp":5619,"Ġsilly":5620,"Ġmour":5621,"Ġmould":5622,"Ġwet":5623,"Ġwave":5624,"Ġwaked":5625,"Ġwipe":5626,"iners":5627,"reet":5628,"reant":5629,"ndy":5630,"Ġbay":5631,"Ġbent":5632,"Ġbru":5633,"Ġbol":5634,"Ġbalm":5635,"ishes":5636,"isement":5637,"oriz":5638,"Ġfin":5639,"Ġfray":5640,"Ġfever":5641,"Ġfelt":5642,"Ġfingers":5643,"itch":5644,"oned":5645,"onus":5646,"Ġcent":5647,"Ġcook":5648,"Ġcab":5649,"Ġnar":5650,"Ġlour":5651,"Ġlun":5652,"arm":5653,"Ġtops":5654,"Ġpor":5655,"Ġpill":5656,"Ġpent":5657,"Ġphi":5658,"Ġpick":5659,"Ġpaint":5660,"Ġpace":5661,"Ġpict":5662,"Ġpush":5663,"Ġpalm":5664,"Ġpomp":5665,"ĠTen":5666,"ĠToward":5667,"ĠTrust":5668,"ĠTribunes":5669,"ĠAdd":5670,"Ġhera":5671,"Ġheight":5672,"Ġgn":5673,"Ġgam":5674,"Ġgap":5675,"Ġgains":5676,"Ġgoose":5677,"athe":5678,"ater":5679,"athed":5680,"Ġbell":5681,"Ġbeef":5682,"Ġbeams":5683,"ĠWES":5684,"ĠWomen":5685,"Ġinv":5686,"Ġhail":5687,"iring":5688,"utch":5689,"ĠBag":5690,"ĠBAG":5691,"Ġmew":5692,"Ġmemb":5693,"ĠSly":5694,"ĠSus":5695,"ĠSaw":5696,"ĠSCRO":5697,"ĠSIR":5698,"Ġnotice":5699,"ĠHon":5700,"ĠHie":5701,"ĠMis":5702,"ĠMuch":5703,"ĠCAR":5704,"ĠCapt":5705,"Ġwears":5706,"Ġweek":5707,"Ġeight":5708,"rich":5709,"riel":5710,"Ġstead":5711,"ĠLive":5712,"Ġhist":5713,"ĠFit":5714,"ĠFive":5715,"ĠFull":5716,"ĠFIT":5717,"ĠGra":5718,"ĠGard":5719,"ĠGEOR":5720,"ĠGaoler":5721,"Ġrend":5722,"Ġrear":5723,"Ġreach":5724,"Ġrevel":5725,"order":5726,"Ġlions":5727,"Ġlikes":5728,"Ġlivest":5729,"asp":5730,"ĠPart":5731,"ĠPers":5732,"ĠPatience":5733,"urgh":5734,"alter":5735,"Ġsoil":5736,"Ġsoci":5737,"Ġaspect":5738,"Ġashamed":5739,"Ġdem":5740,"Ġdepose":5741,"rog":5742,"ĠName":5743,"ĠNature":5744,"hire":5745,"cket":5746,"verty":5747,"ĠYield":5748,"ĠEm":5749,"ĠEver":5750,"ĠElse":5751,"ĠDian":5752,"ushi":5753,"Ġsevere":5754,"Ġseated":5755,"Ġalleg":5756,"ĠThine":5757,"ĠThings":5758,"Ġherd":5759,"Ġanch":5760,"Ġload":5761,"Ġlock":5762,"Ġlovers":5763,"tering":5764,"Ġspot":5765,"Ġspread":5766,"Ġfavours":5767,"Ġourself":5768,"ilful":5769,"iliar":5770,"Ġvast":5771,"Ġshru":5772,"ulous":5773,"ĠVirt":5774,"ĠVouchsafe":5775,"Ġconsequ":5776,"Ġamain":5777,"Ġamends":5778,"Ġambit":5779,"Ġamorous":5780,"iece":5781,"Ġshel":5782,"Ġblot":5783,"vensp":5784,"Ġgoss":5785,"emper":5786,"arers":5787,"olved":5788,"olks":5789,"Ġknowing":5790,"resh":5791,"Ġswears":5792,"Ġbrat":5793,"Ġarray":5794,"Ġuna":5795,"Ġunre":5796,"igent":5797,"igonus":5798,"LIBAN":5799,"Ġhoar":5800,"Ġlikewise":5801,"Ġproved":5802,"Ġprodig":5803,"Ġsaved":5804,"umed":5805,"ĠJesu":5806,"Ġdisin":5807,"Ġspeaking":5808,"Ġpop":5809,"Ġpoverty":5810,"Ġoutrage":5811,"uns":5812,"ickle":5813,"ĠWithdraw":5814,"igned":5815,"Ġmars":5816,"Ġmarvel":5817,"Ġmarvell":5818,"Ġrate":5819,"Ġrouse":5820,"isting":5821,"Ġalso":5822,"ELAND":5823,"Ġabund":5824,"Ġexcept":5825,"Ġrobb":5826,"ĠQu":5827,"aged":5828,"Ġriches":5829,"Ġflat":5830,"Ġslight":5831,"Ġslipp":5832,"ĠWhereof":5833,"Ġbetide":5834,"Ġcouple":5835,"Ġafraid":5836,"Ġparties":5837,"Ġpartner":5838,"Ġrag":5839,"Ġrack":5840,"Ġraven":5841,"idered":5842,"Ġprefer":5843,"Ġclock":5844,"Ġsweetly":5845,"Ġplebe":5846,"ulls":5847,"Ġtrim":5848,"Ġpresume":5849,"Ġpreserve":5850,"Ġsca":5851,"Ġscratch":5852,"Ġnights":5853,"Ġworldly":5854,"Ġdownright":5855,"Ġkeys":5856,"perience":5857,"ably":5858,"Ġimper":5859,"losop":5860,"Ġinteg":5861,"Ġmightst":5862,"Ġstays":5863,"Ġrue":5864,"Ġrestore":5865,"Ġleg":5866,"Ġlect":5867,"Ġlewd":5868,"Ġentrance":5869,"Ġsettled":5870,"Ġtricks":5871,"ĠProclaim":5872,"Ġaccom":5873,"Ġcompound":5874,"Ġended":5875,"Ġpurge":5876,"Ġpurple":5877,"Ġsmil":5878,"Ġsmother":5879,"Ġcouldst":5880,"Ġtrain":5881,"Ġtravell":5882,"Ġcop":5883,"Ġcoat":5884,"Ġcozen":5885,"Ġbidding":5886,"Ġdrew":5887,"Ġearthly":5888,"Ġbrains":5889,"Ġhomely":5890,"Ġhelps":5891,"Ġhopeful":5892,"Ġcheque":5893,"Ġconfound":5894,"Ġbridal":5895,"Ġlanded":5896,"Ġmisc":5897,"Ġholding":5898,"Ġfalcon":5899,"Ġbusy":5900,"Ġfalls":5901,"Ġobsequ":5902,"Ġcourtier":5903,"Ġstrict":5904,"Ġsounds":5905,"Ġsounded":5906,"Ġbuzz":5907,"Ġattain":5908,"Ġattorney":5909,"Ġthankful":5910,"Ġretired":5911,"Ġmerchant":5912,"Ġrevenges":5913,"erest":5914,"Ġprompt":5915,"Ġcontents":5916,"Ġvillains":5917,"Ġkisses":5918,"Ġmerri":5919,"ĠComes":5920,"ĠComfort":5921,"Ġwinters":5922,"Ġlambs":5923,"ĠCanst":5924,"Ġlately":5925,"Ġbeats":5926,"Ġbeaten":5927,"upid":5928,"blood":5929,"chers":5930,"ventry":5931,"Ġchosen":5932,"Ġlearned":5933,"Ġentreaties":5934,"Ġdevilish":5935,"guard":5936,"gundy":5937,"Ġboldly":5938,"Ġboldness":5939,"Ġyouthful":5940,"Ġinfer":5941,"Ġprofane":5942,"ĠBecomes":5943,"Ġreadiness":5944,"Ġdivor":5945,"Ġterm":5946,"ĠCALIBAN":5947,"ĠWelsh":5948,"Ġcloudy":5949,"Ġsignal":5950,"Ġsignify":5951,"Ġmusicians":5952,"Ġwax":5953,"Ġdroop":5954,"ĠSwear":5955,"Ġextreme":5956,"Ġskill":5957,"Ġgrieves":5958,"Ġgrieved":5959,"ĠELY":5960,"Ġprophes":5961,"Ġcheerly":5962,"Ġwisely":5963,"Ġcrook":5964,"Ġexped":5965,"Ġtroubl":5966,"Ġsatisfaction":5967,"Ġesteem":5968,"Ġdarkness":5969,"ĠAbove":5970,"Ġbowels":5971,"Ġtowns":5972,"Ġflattering":5973,"Ġfrail":5974,"Ġhurl":5975,"Ġsuddenly":5976,"Ġcowardly":5977,"Ġapprobation":5978,"Ġlamentable":5979,"Ġowes":5980,"Ġinsol":5981,"ĠBlunt":5982,"Ġeaten":5983,"Ġkinsmen":5984,"Ġmiddle":5985,"Ġdestruction":5986,"Ġdeparture":5987,"Ġfondly":5988,"ĠAdieu":5989,"Ġusurping":5990,"umbling":5991,"Ġgladly":5992,"Ġships":5993,"Ġmildness":5994,"Ġtreasons":5995,"mediate":5996,"volio":5997,"Ġapace":5998,"Ġshop":5999,"Ġshoes":6000,"Ġlists":6001,"ĠSTEPH":6002,"Ġsentenced":6003,"Ġcondemned":6004,"Ġtroubled":6005,"Ġmutinous":6006,"Ġpetty":6007,"ĠAntigonus":6008,"Ġstorms":6009,"Ġgrandam":6010,"Ġtemples":6011,"Ġstops":6012,"ĠPerhaps":6013,"Ġconquest":6014,"Ġbastards":6015,"Ġeldest":6016,"Ġconstable":6017,"ĠNeither":6018,"ĠEXTON":6019,"Ġneighbours":6020,"Ġamongst":6021,"Ġprovide":6022,"Ġgreeting":6023,"Ġministers":6024,"ĠDesp":6025,"Ġconclud":6026,"Ġconclude":6027,"Ġacquainted":6028,"Ġgifts":6029,"Ġghostly":6030,"join":6031,"Ġeleven":6032,"Ġrobes":6033,"Ġdesigns":6034,"Ġtempted":6035,"Ġdetest":6036,"ĠShalt":6037,"ĠPrepare":6038,"Ġdearer":6039,"Ġheavier":6040,"Ġpersuade":6041,"Ġerrand":6042,"Ġwandering":6043,"Ġweapons":6044,"Ġvanity":6045,"Ġaccusation":6046,"Ġfrost":6047,"Ġpiercing":6048,"ĠCoventry":6049,"Ġdiscontented":6050,"Ġtestim":6051,"ĠAppear":6052,"Ġhazard":6053,"ĠCaliban":6054,"Ġstolen":6055,"Ġinstantly":6056,"iveness":6057,"Ġfigure":6058,"Ġfurnish":6059,"Ġparents":6060,"Ġrevolt":6061,"Ġnobleness":6062,"Ġprovoked":6063,"Ġrecompense":6064,"Ġcircumstance":6065,"Ġfiend":6066,"Ġceremon":6067,"ĠBenvolio":6068,"ĠMinola":6069,"Ġreckon":6070,"LISLE":6071,"Ġreconcile":6072,"Ġunkindness":6073,"Ġsubstitute":6074,"Ġpilgrimage":6075,"Ġcomplexion":6076,"nesday":6077,"onstant":6078,"ĠCurtis":6079,"ĠRavensp":6080,"Ġseized":6081,"Ġneglect":6082,"Ġvarlet":6083,"ĠVenice":6084,"Ġsufficient":6085,"Ġestimation":6086,"Ġblemish":6087,"Ġoccupation":6088,"Ġfantast":6089,"Ġfrank":6090,"Ġfreedom":6091,"Ġthieves":6092,"ĠWednesday":6093,"ĠBurgundy":6094,"ĠFalse":6095,"Ġgoddess":6096,"Ġsavage":6097,"Ġransom":6098,"Ġexample":6099,"Ġmisfortune":6100,"Ġtyrannous":6101,"TMORELAND":6102,"Ġnarrow":6103,"Ġphilosop":6104,"ĠTowards":6105,"Ġherald":6106,"ĠWESTMORELAND":6107,"ĠBagot":6108,"ĠBAGOT":6109,"Ġmembers":6110,"ĠSCROOP":6111,"ĠCARLISLE":6112,"ĠCaptain":6113,"ĠFITZWATER":6114,"ĠGardener":6115,"ĠGEORGE":6116,"ĠPersu":6117,"Ġallegiance":6118,"Ġambitious":6119,"Ġintegrity":6120,"ĠSTEPHEN":6121,"ĠRavenspurgh":6122,"Ġphilosophy":6123,"BISHOP":6124,"Hic":6125,"What":6126,"Zounds":6127,"avour":6128,"br":6129,"bot":6130,"bour":6131,"back":6132,"boy":6133,"board":6134,"bric":6135,"cra":6136,"cus":6137,"do":6138,"des":6139,"done":6140,"eb":6141,"eves":6142,"gea":6143,"gic":6144,"gues":6145,"hors":6146,"horse":6147,"ipt":6148,"kest":6149,"lor":6150,"len":6151,"low":6152,"lain":6153,"last":6154,"lance":6155,"liness":6156,"longs":6157,"made":6158,"oble":6159,"off":6160,"ocate":6161,"ris":6162,"rish":6163,"tin":6164,"tied":6165,"trees":6166,"uc":6167,"ug":6168,"uiv":6169,"ually":6170,"vir":6171,"wer":6172,"wear":6173,"work":6174,"water":6175,"Ġtrow":6176,"Ġtie":6177,"Ġtorn":6178,"Ġtaking":6179,"Ġack":6180,"Ġafe":6181,"Ġape":6182,"Ġsow":6183,"Ġsand":6184,"Ġsong":6185,"Ġsixt":6186,"Ġmom":6187,"Ġmas":6188,"Ġmouse":6189,"Ġmates":6190,"Ġmurde":6191,"Ġmask":6192,"inu":6193,"inal":6194,"inies":6195,"inces":6196,"hand":6197,"hage":6198,"nday":6199,"Ġbul":6200,"Ġbows":6201,"Ġbail":6202,"Ġbounty":6203,"orax":6204,"Ġfre":6205,"Ġfan":6206,"Ġfif":6207,"Ġfrant":6208,"Ġfount":6209,"Ġfift":6210,"Ġfulf":6211,"Ġfront":6212,"Ġfolks":6213,"erp":6214,"onio":6215,"Ġdot":6216,"Ġdine":6217,"Ġdried":6218,"Ġdined":6219,"Ġdiest":6220,"Ġdash":6221,"Ġcord":6222,"Ġcro":6223,"Ġcool":6224,"Ġcrows":6225,"Ġcords":6226,"Ġcushi":6227,"Ġnort":6228,"Ġnigh":6229,"Ġnamed":6230,"Ġnimble":6231,"Ġlute":6232,"Ġlads":6233,"Ġlinger":6234,"Ġyare":6235,"Ġyester":6236,"ening":6237,"enches":6238,"Ġthw":6239,"Ġthrown":6240,"arried":6241,"Ġhill":6242,"Ġtoads":6243,"Ġpow":6244,"Ġpour":6245,"Ġpest":6246,"Ġpant":6247,"Ġpup":6248,"ĠTra":6249,"ĠTun":6250,"ĠTalk":6251,"ĠTew":6252,"ĠTouch":6253,"ĠTeach":6254,"ĠTroy":6255,"ĠAc":6256,"ĠAff":6257,"ĠABRA":6258,"ĠAriel":6259,"Ġheel":6260,"Ġheinous":6261,"otland":6262,"Ġgather":6263,"Ġgame":6264,"Ġgust":6265,"Ġgaunt":6266,"ĠWest":6267,"ĠWert":6268,"ĠWalter":6269,"Ġinch":6270,"Ġinward":6271,"Ġinvent":6272,"Ġhag":6273,"Ġhaunt":6274,"lect":6275,"aying":6276,"uts":6277,"ĠBest":6278,"ĠBound":6279,"ĠBold":6280,"ĠBishop":6281,"Ġmeed":6282,"Ġmeal":6283,"iments":6284,"ĠSyc":6285,"ĠHar":6286,"ĠMur":6287,"Ġforso":6288,"Ġug":6289,"ĠChe":6290,"ĠCart":6291,"ĠCont":6292,"ĠContent":6293,"ĠCourage":6294,"ĠCupid":6295,"Ġeff":6296,"advent":6297,"advised":6298,"ril":6299,"ĠOver":6300,"Ġstink":6301,"Ġstag":6302,"Ġstark":6303,"Ġsteep":6304,"Ġstiff":6305,"Ġkites":6306,"ĠLend":6307,"ĠLies":6308,"ĠLead":6309,"ĠFell":6310,"ĠFall":6311,"ĠFoul":6312,"ĠFetch":6313,"ĠGives":6314,"Ġrein":6315,"Ġresemb":6316,"Ġrevive":6317,"iders":6318,"rament":6319,"racious":6320,"Ġlick":6321,"Ġlief":6322,"asant":6323,"ĠPem":6324,"ĠPurs":6325,"urb":6326,"uring":6327,"alks":6328,"Ġash":6329,"Ġashes":6330,"Ġdeer":6331,"Ġdeform":6332,"ĠRel":6333,"roach":6334,"ĠNed":6335,"ĠNep":6336,"Ġshade":6337,"Ġdole":6338,"Ġnod":6339,"Ġnoon":6340,"amy":6341,"amity":6342,"aments":6343,"ĠEr":6344,"Ġbutter":6345,"ĠDest":6346,"ĠDep":6347,"ĠDiv":6348,"Ġsearch":6349,"anders":6350,"ĠThrow":6351,"rue":6352,"ruly":6353,"Ġann":6354,"Ġancest":6355,"ĠKent":6356,"ĠKind":6357,"Ġlodge":6358,"Ġloathed":6359,"Ġspark":6360,"Ġspurs":6361,"Ġspider":6362,"ella":6363,"Ġvul":6364,"Ġvass":6365,"Ġvouch":6366,"Ġvial":6367,"Ġventure":6368,"ctor":6369,"ousins":6370,"Ġwhatsoever":6371,"Ġshot":6372,"Ġshown":6373,"ules":6374,"Ġprate":6375,"Ġprint":6376,"Ġprating":6377,"Ġmanhood":6378,"Ġamaz":6379,"icle":6380,"ication":6381,"Ġblue":6382,"Ġblown":6383,"Ġbliss":6384,"Ġblaze":6385,"Ġblushing":6386,"ived":6387,"ively":6388,"Ġtheme":6389,"Ġthereto":6390,"oster":6391,"Ġcanop":6392,"Ġswoon":6393,"Ġherein":6394,"Ġorator":6395,"Ġbranch":6396,"Ġarise":6397,"Ġunlike":6398,"Ġunruly":6399,"Ġworms":6400,"Ġworser":6401,"Ġgrass":6402,"Ġgraces":6403,"Ġmustard":6404,"Ġseeks":6405,"Ġshoulders":6406,"Ġlikeli":6407,"Ġsap":6408,"Ġsack":6409,"Ġplan":6410,"Ġplaint":6411,"peian":6412,"ĠJup":6413,"Ġdiso":6414,"Ġdissemb":6415,"Ġenforced":6416,"Ġenrich":6417,"ption":6418,"uned":6419,"Ġrhe":6420,"Ġranc":6421,"Ġrush":6422,"Ġroof":6423,"Ġrushes":6424,"Ġoffences":6425,"Ġalar":6426,"Ġaloud":6427,"Ġbrotherhood":6428,"Ġexceed":6429,"Ġfox":6430,"Ġroses":6431,"Ġroaring":6432,"Ġdesc":6433,"Ġrig":6434,"Ġleap":6435,"Ġleaving":6436,"Ġflock":6437,"Ġslily":6438,"aped":6439,"Ġrace":6440,"Ġcommends":6441,"Ġcler":6442,"Ġsweetest":6443,"Ġperd":6444,"Ġperfection":6445,"Ġpermit":6446,"Ġwring":6447,"Ġotherwise":6448,"awful":6449,"Ġmeaner":6450,"Ġscore":6451,"Ġnighting":6452,"ĠAnswer":6453,"lier":6454,"Ġmoe":6455,"Ġmoving":6456,"Ġmoiety":6457,"Ġdownfall":6458,"Ġappears":6459,"Ġwhist":6460,"Ġkey":6461,"ĠThank":6462,"Ġmothers":6463,"ranch":6464,"Ġeverlast":6465,"Ġintents":6466,"Ġfriendship":6467,"Ġconsidered":6468,"ksbury":6469,"Ġrum":6470,"Ġrests":6471,"Ġpeer":6472,"Ġlevel":6473,"Ġharl":6474,"Ġharvest":6475,"Ġharbour":6476,"attern":6477,"ĠProsper":6478,"oses":6479,"Ġbestri":6480,"Ġaccomp":6481,"Ġhenceforth":6482,"Ġcompare":6483,"Ġfaced":6484,"Ġendured":6485,"ulting":6486,"ĠThyself":6487,"Ġchamp":6488,"Ġdearth":6489,"Ġcoast":6490,"Ġtrees":6491,"Ġbrand":6492,"Ġchances":6493,"Ġchanging":6494,"twould":6495,"isterous":6496,"Ġcharges":6497,"Ġconfidence":6498,"Ġconfeder":6499,"Ġimpeach":6500,"Ġlights":6501,"Ġbeside":6502,"Ġroyalties":6503,"Ġfully":6504,"Ġdevour":6505,"Ġafterward":6506,"Ġwronged":6507,"Ġmischief":6508,"Ġlasting":6509,"Ġthousands":6510,"Ġpatron":6511,"Ġfallen":6512,"Ġfalling":6513,"Ġobs":6514,"Ġobsc":6515,"ĠAlban":6516,"Ġstrife":6517,"Ġtalking":6518,"Ġhumility":6519,"Ġbelong":6520,"Ġbelieved":6521,"Ġdram":6522,"Ġadvocate":6523,"Ġserious":6524,"Ġwelc":6525,"Ġboisterous":6526,"Ġpersons":6527,"Ġdancing":6528,"Ġdoubtful":6529,"Ġgrim":6530,"Ġhangman":6531,"Ġrevenue":6532,"Ġdischarge":6533,"Ġcrab":6534,"Ġcommands":6535,"Ġwindow":6536,"Ġproudest":6537,"ĠSunday":6538,"Ġdepend":6539,"Ġyielding":6540,"Ġbreaks":6541,"Ġtemple":6542,"ĠCommit":6543,"ĠCommand":6544,"Ġsupport":6545,"Ġsitting":6546,"Ġcarries":6547,"Ġrequire":6548,"Ġdefy":6549,"Ġtenderness":6550,"Ġsadly":6551,"Ġreported":6552,"Ġchose":6553,"Ġgrowth":6554,"ĠMontagues":6555,"Ġrecreant":6556,"Ġwatery":6557,"Ġasking":6558,"Ġsilk":6559,"Ġlearning":6560,"ĠHapp":6561,"Ġbattles":6562,"Ġcrying":6563,"Ġentreaty":6564,"Ġdevils":6565,"shine":6566,"Ġmurders":6567,"Ġruns":6568,"Ġrevengeful":6569,"Ġquarter":6570,"Ġconfessor":6571,"Ġconfession":6572,"Ġdelicate":6573,"Ġspeedy":6574,"Ġdespised":6575,"Ġforehead":6576,"Ġterr":6577,"Ġminutes":6578,"Ġbosoms":6579,"there":6580,"Ġveil":6581,"Ġwonderful":6582,"Ġharmony":6583,"Ġguiltless":6584,"Ġattended":6585,"Ġmurderous":6586,"ĠVolscians":6587,"ĠVolscian":6588,"Twixt":6589,"Ġsingular":6590,"Ġburden":6591,"Ġdistra":6592,"Ġdistress":6593,"Ġdisturb":6594,"Ġacts":6595,"Ġmusician":6596,"Ġwaits":6597,"Ġclosed":6598,"Ġbeggars":6599,"Ġsuffering":6600,"Ġsufferance":6601,"Ġbreasts":6602,"Ġwedded":6603,"Ġdukes":6604,"Ġcrim":6605,"Ġcrush":6606,"Ġembass":6607,"Ġredempt":6608,"ĠRead":6609,"ĠReady":6610,"Ġfeasts":6611,"Ġgroom":6612,"Ġundo":6613,"Ġbowl":6614,"Ġinterrupt":6615,"Ġevils":6616,"Ġsumm":6617,"Ġvisitation":6618,"Ġbaby":6619,"Ġframed":6620,"Ġknocks":6621,"Ġsafely":6622,"Ġsafeguard":6623,"ĠIsabella":6624,"Ġignoble":6625,"Ġoppression":6626,"Ġpuiss":6627,"standing":6628,"Ġsacrament":6629,"Ġapproved":6630,"Ġleaden":6631,"ĠStands":6632,"Ġlamentation":6633,"Ġclean":6634,"Ġpitied":6635,"Ġinsinu":6636,"Ġunworthy":6637,"Ġunwilling":6638,"Ġsecrets":6639,"Ġdrinking":6640,"Ġsurfeit":6641,"Ġmidst":6642,"Ġmidwife":6643,"Ġdestiny":6644,"Ġsmallest":6645,"Ġdamnable":6646,"Ġutmost":6647,"ĠAdv":6648,"ĠBritt":6649,"Ġeasily":6650,"Ġproceedings":6651,"Ġmildly":6652,"Ġcauses":6653,"Ġinjustice":6654,"Ġapart":6655,"Ġmedic":6656,"Ġmodel":6657,"Ġfamiliar":6658,"ĠTwice":6659,"ĠMistake":6660,"Ġreigns":6661,"ossess":6662,"ĠTruly":6663,"ĠAntonio":6664,"Ġprosperity":6665,"Ġlenity":6666,"Ġlowly":6667,"Ġbending":6668,"ĠScotland":6669,"Ġslanderous":6670,"Ġpursue":6671,"Ġpursuit":6672,"ĠCapulets":6673,"Ġmountain":6674,"angling":6675,"Ġplants":6676,"Ġprovided":6677,"Ġextremes":6678,"Ġbald":6679,"Ġimagination":6680,"Ġglasses":6681,"Ġconclusion":6682,"Ġunlook":6683,"Ġunluck":6684,"Ġunpro":6685,"Ġprophecy":6686,"rateful":6687,"shearing":6688,"Ġdisgraced":6689,"Ġavoided":6690,"Ġdrift":6691,"Ġcrept":6692,"Ġeager":6693,"Ġloathsome":6694,"Ġloyalty":6695,"Ġaims":6696,"Ġsensible":6697,"Ġpinch":6698,"Ġpilot":6699,"Ġinfected":6700,"Ġstatutes":6701,"Ġstocks":6702,"Ġchiefest":6703,"govern":6704,"Ġcalamity":6705,"Ġangels":6706,"Ġlodged":6707,"Ġlodging":6708,"Ġcracking":6709,"Ġcorruption":6710,"Ġconqueror":6711,"Ġtutor":6712,"Ġfleet":6713,"Ġfrozen":6714,"ĠARCHBISHOP":6715,"Ġcloak":6716,"Ġwhoreson":6717,"Ġadvanced":6718,"Ġmagist":6719,"Ġconcerns":6720,"Ġcompassion":6721,"Ġsprings":6722,"Ġswelling":6723,"Ġabhorr":6724,"Ġadverse":6725,"Ġperjured":6726,"Ġwhispering":6727,"ĠSuppose":6728,"Ġafflict":6729,"Ġmultitude":6730,"Ġnails":6731,"Ġlinea":6732,"ĠTarpeian":6733,"Ġinquire":6734,"Ġmanifest":6735,"Ġdispleasure":6736,"Ġclimate":6737,"Ġwrinkled":6738,"Ġcorrection":6739,"ĠConfess":6740,"ĠAntium":6741,"Ġtaunts":6742,"Ġmoody":6743,"Ġpedlar":6744,"ĠSometime":6745,"Ġsteward":6746,"ĠLieutenant":6747,"Ġbranches":6748,"Ġincensed":6749,"Ġinnocence":6750,"Ġflatterers":6751,"Ġeternal":6752,"Ġtiger":6753,"Ġmilk":6754,"Ġnumbers":6755,"Ġhinder":6756,"Ġpearl":6757,"Ġbereft":6758,"ĠBreak":6759,"Ġornaments":6760,"Ġunseen":6761,"Ġtrifles":6762,"Ġcounsellor":6763,"Ġserpent":6764,"Ġtardy":6765,"Ġsurpr":6766,"Ġcabin":6767,"Ġlunatic":6768,"Ġhistory":6769,"ĠVirtue":6770,"Ġconsequence":6771,"Ġpopular":6772,"Ġmarshal":6773,"Ġmarvellous":6774,"Ġplebeians":6775,"Ġprophesy":6776,"Ġceremonious":6777,"uivant":6778,"Ġacknow":6779,"Ġafeard":6780,"Ġsixteen":6781,"Ġmoment":6782,"Ġmurdered":6783,"Ġfrantic":6784,"Ġfifteen":6785,"Ġnorthern":6786,"ĠTunis":6787,"ĠTewksbury":6788,"ĠABRAHAM":6789,"ĠSycorax":6790,"ĠMurder":6791,"Ġforsooth":6792,"ĠCarthage":6793,"adventure":6794,"ĠPembroke":6795,"ĠNeptune":6796,"Ġlikelihood":6797,"ĠJupiter":6798,"Ġredemption":6799,"ĠBrittany":6800,"AGE":6801,"Be":6802,"Gain":6803,"He":6804,"IEL":6805,"MILIA":6806,"REY":6807,"St":6808,"The":6809,"ais":6810,"ald":6811,"aches":6812,"avish":6813,"bid":6814,"bell":6815,"bles":6816,"bearer":6817,"cis":6818,"cat":6819,"core":6820,"cast":6821,"cock":6822,"cund":6823,"duce":6824,"ex":6825,"eks":6826,"franch":6827,"good":6828,"gage":6829,"grown":6830,"gled":6831,"gory":6832,"greed":6833,"hur":6834,"iqu":6835,"ivers":6836,"jud":6837,"kens":6838,"lm":6839,"lu":6840,"look":6841,"leness":6842,"met":6843,"miss":6844,"overy":6845,"ops":6846,"opher":6847,"ph":6848,"por":6849,"phan":6850,"ples":6851,"pret":6852,"picious":6853,"rge":6854,"sion":6855,"side":6856,"scape":6857,"ule":6858,"uge":6859,"uish":6860,"uced":6861,"ukes":6862,"ueless":6863,"vil":6864,"wit":6865,"will":6866,"witted":6867,"your":6868,"Ġire":6869,"Ġton":6870,"Ġtur":6871,"Ġtea":6872,"Ġtink":6873,"Ġtreat":6874,"Ġtents":6875,"Ġtainted":6876,"Ġtailor":6877,"Ġtamed":6878,"Ġtumble":6879,"heard":6880,"Ġav":6881,"Ġafore":6882,"ouches":6883,"Ġsith":6884,"Ġsine":6885,"Ġsiege":6886,"Ġmast":6887,"Ġmant":6888,"Ġmiles":6889,"Ġwester":6890,"Ġwaken":6891,"Ġwilful":6892,"Ġwenches":6893,"iner":6894,"reth":6895,"haeth":6896,"habit":6897,"Ġbought":6898,"Ġbount":6899,"Ġbishop":6900,"isher":6901,"isome":6902,"oricles":6903,"Ġfet":6904,"Ġfest":6905,"Ġfem":6906,"Ġfits":6907,"Ġfilth":6908,"ĠIll":6909,"lling":6910,"lled":6911,"itting":6912,"Ġder":6913,"Ġdom":6914,"Ġded":6915,"Ġdil":6916,"Ġdame":6917,"Ġdiet":6918,"Ġdrows":6919,"Ġdumb":6920,"Ġcand":6921,"Ġcard":6922,"Ġcave":6923,"Ġcuck":6924,"Ġcrew":6925,"Ġcrest":6926,"Ġcurious":6927,"Ġcousins":6928,"Ġnon":6929,"Ġnaught":6930,"Ġnourish":6931,"Ġlink":6932,"Ġlace":6933,"Ġloose":6934,"Ġlends":6935,"Ġlung":6936,"Ġlatest":6937,"eny":6938,"enown":6939,"Ġthres":6940,"Ġthrees":6941,"aration":6942,"arison":6943,"Ġhy":6944,"Ġhood":6945,"Ġobt":6946,"Ġtoe":6947,"Ġtoy":6948,"Ġtoken":6949,"Ġtower":6950,"Ġpine":6951,"Ġpate":6952,"Ġpull":6953,"Ġpedant":6954,"Ġpounds":6955,"Ġprun":6956,"Ġpattern":6957,"ĠTur":6958,"ĠAgain":6959,"Ġheigh":6960,"Ġhedge":6961,"stone":6962,"strong":6963,"strel":6964,"owick":6965,"ank":6966,"anish":6967,"oming":6968,"omenes":6969,"Ġgaz":6970,"Ġgeld":6971,"Ġgulf":6972,"ato":6973,"atient":6974,"Ġbeet":6975,"Ġbeads":6976,"ĠWorse":6977,"ĠWales":6978,"seth":6979,"seem":6980,"Ġinve":6981,"Ġinherit":6982,"Ġhaw":6983,"Ġhall":6984,"Ġhalt":6985,"cel":6986,"etition":6987,"ediment":6988,"ĠBad":6989,"ĠBON":6990,"ĠBack":6991,"Ġmellow":6992,"imo":6993,"ims":6994,"ĠSin":6995,"ĠSUR":6996,"Ġnotes":6997,"Ġnotorious":6998,"Ġnotwith":6999,"ĠHost":7000,"ĠHigh":7001,"ĠHerc":7002,"ĠHoly":7003,"chool":7004,"ĠMasters":7005,"Ġforn":7006,"Ġforces":7007,"key":7008,"ĠCy":7009,"ĠCher":7010,"ĠCold":7011,"ĠCarry":7012,"ĠCursed":7013,"Ġweed":7014,"Ġweal":7015,"illed":7016,"Ġelo":7017,"Ġebb":7018,"herited":7019,"entious":7020,"ado":7021,"adem":7022,"adise":7023,"rion":7024,"rial":7025,"rief":7026,"rieve":7027,"ĠOpen":7028,"ĠObey":7029,"Ġstu":7030,"Ġstem":7031,"Ġstaff":7032,"ĠLam":7033,"ĠLod":7034,"ĠLeft":7035,"ĠFill":7036,"ĠFly":7037,"ĠFif":7038,"ĠFran":7039,"ĠGold":7040,"ĠGrand":7041,"ĠGroom":7042,"ghts":7043,"Ġren":7044,"Ġrent":7045,"Ġrender":7046,"idd":7047,"iding":7048,"rails":7049,"Ġliar":7050,"Ġliqu":7051,"asy":7052,"asing":7053,"asures":7054,"ĠPho":7055,"ĠPres":7056,"ĠPatri":7057,"ĠPAGE":7058,"ĠPhaeth":7059,"urvy":7060,"alion":7061,"Ġsolic":7062,"Ġassemb":7063,"Ġdeceive":7064,"Ġdefect":7065,"ĠRo":7066,"ĠRed":7067,"ĠRest":7068,"ĠRun":7069,"ĠRenown":7070,"rop":7071,"ĠNATH":7072,"aining":7073,"verse":7074,"Ġdoct":7075,"Ġdoves":7076,"Ġdoors":7077,"Ġnoses":7078,"ĠEnd":7079,"ĠEvery":7080,"ĠEMILIA":7081,"ĠDef":7082,"ĠDION":7083,"ĠDirect":7084,"ĠDoricles":7085,"Ġsear":7086,"Ġsequ":7087,"Ġallay":7088,"Ġallies":7089,"Ġsued":7090,"Ġsung":7091,"Ġsunder":7092,"Ġsugg":7093,"Ġsugar":7094,"Ġherbs":7095,"Ġansw":7096,"Ġantic":7097,"Ġloins":7098,"Ġlocks":7099,"terate":7100,"Ġsped":7101,"Ġspilt":7102,"Ġspices":7103,"Ġspiders":7104,"Ġfaction":7105,"thw":7106,"thing":7107,"throw":7108,"Ġnegl":7109,"Ġknit":7110,"Ġvi":7111,"Ġvine":7112,"Ġvig":7113,"Ġshout":7114,"Ġshower":7115,"antime":7116,"quet":7117,"athom":7118,"Ġmum":7119,"Ġmuff":7120,"Ġwhet":7121,"Ġwheel":7122,"ĠWhate":7123,"Ġamend":7124,"icial":7125,"iel":7126,"Ġblister":7127,"Ġblade":7128,"ivered":7129,"venient":7130,"ĠForth":7131,"ĠForbear":7132,"ĠForbid":7133,"Ġwasp":7134,"olar":7135,"olve":7136,"ĠHector":7137,"Ġhatch":7138,"ANIEL":7139,"Ġknowest":7140,"Ġcann":7141,"Ġcanker":7142,"Ġsayest":7143,"ressed":7144,"feits":7145,"Ġorphan":7146,"ppet":7147,"pped":7148,"Ġusing":7149,"Ġusure":7150,"allel":7151,"Ġarch":7152,"Ġargu":7153,"Ġarbit":7154,"Ġunth":7155,"Ġunple":7156,"Ġunrest":7157,"Ġworshi":7158,"ĠAss":7159,"Ġquake":7160,"Ġquaint":7161,"elting":7162,"Ġjade":7163,"Ġgraft":7164,"Ġmusty":7165,"Ġhole":7166,"cip":7167,"cially":7168,"Ġprocure":7169,"Ġmadly":7170,"Ġmadest":7171,"Ġmadman":7172,"Ġplate":7173,"ums":7174,"umes":7175,"umps":7176,"uments":7177,"umny":7178,"pecially":7179,"ĠJer":7180,"ĠJun":7181,"ĠJust":7182,"ĠJud":7183,"Ġdisting":7184,"Ġdissemble":7185,"Ġdisorder":7186,"Ġpox":7187,"Ġpocket":7188,"fulness":7189,"ptory":7190,"Ġtruer":7191,"ĠThoughts":7192,"Ġmarr":7193,"Ġmarble":7194,"Ġmariners":7195,"Ġrats":7196,"Ġrites":7197,"Ġrising":7198,"ĠIns":7199,"ĠInfer":7200,"Ġaloof":7201,"Ġalto":7202,"Ġheap":7203,"Ġhears":7204,"echer":7205,"eches":7206,"Ġabst":7207,"Ġabod":7208,"Ġexclaim":7209,"Ġexact":7210,"Ġexperience":7211,"Ġfold":7212,"Ġfoil":7213,"Ġearl":7214,"Ġearldom":7215,"Ġrode":7216,"Ġrocks":7217,"Ġlooker":7218,"erving":7219,"ervation":7220,"ĠUrge":7221,"Ġridd":7222,"Ġripen":7223,"Ġrivers":7224,"tised":7225,"Ġwarn":7226,"Ġwarning":7227,"Ġflame":7228,"Ġslack":7229,"Ġbreeding":7230,"sses":7231,"Ġafoot":7232,"apable":7233,"izab":7234,"Ġrages":7235,"Ġrasc":7236,"Ġraging":7237,"Ġraiment":7238,"Ġprec":7239,"Ġpreced":7240,"Ġprerog":7241,"Ġprays":7242,"Ġclap":7243,"Ġsweets":7244,"Ġperf":7245,"Ġpledge":7246,"Ġnobleman":7247,"Ġwrangling":7248,"Ġtrades":7249,"Ġwayward":7250,"Ġheadstrong":7251,"aws":7252,"Ġpreserved":7253,"Ġscour":7254,"Ġscru":7255,"ĠAny":7256,"Ġqueens":7257,"lip":7258,"Ġmoan":7259,"Ġchival":7260,"Ġcontri":7261,"Ġapply":7262,"Ġappell":7263,"Ġappoint":7264,"Ġbegot":7265,"Ġarmed":7266,"Ġimmediate":7267,"Ġmale":7268,"Ġreplied":7269,"Ġreproof":7270,"Ġrepossess":7271,"Ġrepetition":7272,"love":7273,"Ġlongest":7274,"Ġintended":7275,"Ġconspir":7276,"Ġconsorted":7277,"Ġconsumed":7278,"Ġperem":7279,"ffer":7280,"Ġlevy":7281,"Ġentire":7282,"Ġentrails":7283,"Ġlieutenant":7284,"chelor":7285,"Ġtried":7286,"ĠProf":7287,"Ġresort":7288,"Ġrescue":7289,"Ġcomposition":7290,"Ġprivy":7291,"Ġchaf":7292,"Ġchap":7293,"Ġchains":7294,"Ġcounted":7295,"fts":7296,"Ġpeaceful":7297,"Ġelsewhe":7298,"ailing":7299,"Ġbackward":7300,"Ġcoz":7301,"Ġcoal":7302,"Ġcoals":7303,"Ġneedle":7304,"Ġneedless":7305,"Ġladyship":7306,"Ġbraved":7307,"Ġbrass":7308,"Ġhighway":7309,"Ġhusbands":7310,"Ġchanges":7311,"Ġminded":7312,"Ġbanquet":7313,"Ġchest":7314,"Ġshowers":7315,"Ġconfer":7316,"Ġconfines":7317,"Ġconfusion":7318,"Ġbribe":7319,"Ġcaused":7320,"Ġimpart":7321,"Ġimpud":7322,"Ġimpression":7323,"Ġimpatience":7324,"Ġimpatient":7325,"Ġimpediment":7326,"Ġmistaking":7327,"Ġglories":7328,"Ġbodes":7329,"Ġlightly":7330,"Ġlightness":7331,"Ġbeseem":7332,"Ġnatures":7333,"Ġpardons":7334,"Ġunderne":7335,"Ġundergo":7336,"Ġdevice":7337,"Ġhappier":7338,"Ġkilled":7339,"Ġfollowing":7340,"Ġbush":7341,"Ġfarm":7342,"Ġsunshine":7343,"Ġobst":7344,"ival":7345,"Ġturned":7346,"Ġstreet":7347,"Ġstream":7348,"Ġcomforts":7349,"Ġcomfortable":7350,"Ġsleeps":7351,"Ġsleepy":7352,"itories":7353,"ĠHerald":7354,"Ġattent":7355,"Ġfalsely":7356,"Ġmatters":7357,"Ġbox":7358,"Ġboon":7359,"Ġfights":7360,"Ġfighting":7361,"holds":7362,"Ġprisoners":7363,"Ġmerciful":7364,"Ġdangers":7365,"mph":7366,"mpet":7367,"Ġassault":7368,"Ġdiscords":7369,"Ġdischarged":7370,"Ġstrait":7371,"Ġcommanding":7372,"Ġdreamt":7373,"enerate":7374,"kenbury":7375,"Ġdared":7376,"Ġgetting":7377,"Ġsisterhood":7378,"Ġfouler":7379,"versy":7380,"Ġbreaking":7381,"Ġawry":7382,"Ġmerrim":7383,"Ġdenial":7384,"Ġsuppose":7385,"Ġsuppli":7386,"Ġrequires":7387,"Ġrequired":7388,"Ġbeating":7389,"Ġvalue":7390,"Ġtenderly":7391,"Ġfootman":7392,"Ġwoeful":7393,"Ġreturned":7394,"upon":7395,"Ġdeeper":7396,"Ġdeeply":7397,"blown":7398,"Ġchop":7399,"Ġcoldly":7400,"Ġnursed":7401,"Ġrecover":7402,"azon":7403,"Ġsuffice":7404,"Ġplucks":7405,"Ġairy":7406,"Ġsilken":7407,"Ġjocund":7408,"Ġpastime":7409,"shining":7410,"Ġfasting":7411,"Ġstrongly":7412,"xton":7413,"Ġfitted":7414,"Ġpossessed":7415,"Ġinconstant":7416,"Ġinfring":7417,"Ġissued":7418,"Ġprofan":7419,"Ġprofits":7420,"plish":7421,"voke":7422,"voided":7423,"Ġdelivered":7424,"Ġforet":7425,"Ġforest":7426,"Ġdivided":7427,"Ġdivines":7428,"Ġdivision":7429,"Ġposterity":7430,"Ġmocking":7431,"Ġmockery":7432,"Ġresolute":7433,"Ġcounsels":7434,"Ġterrible":7435,"Ġminstrel":7436,"Ġtribune":7437,"Ġtribute":7438,"Ġwhipt":7439,"Ġharmless":7440,"Ġdraws":7441,"Twill":7442,"Ġagreed":7443,"Ġdistressed":7444,"Ġactor":7445,"Ġstirs":7446,"Ġstirring":7447,"Ġaffright":7448,"Ġsigns":7449,"Ġbreathes":7450,"Ġclosely":7451,"Ġskulls":7452,"Ġforgiveness":7453,"Ġwisest":7454,"ĠBeshrew":7455,"Ġregiment":7456,"Ġpoisonous":7457,"Ġcheerfully":7458,"Ġtax":7459,"Ġdireful":7460,"Ġembra":7461,"Ġembraced":7462,"Ġpays":7463,"Ġsuccor":7464,"Ġmalign":7465,"Ġdarken":7466,"ĠArm":7467,"ĠArise":7468,"Ġblessings":7469,"Ġbleed":7470,"Ġbleeds":7471,"Ġpenny":7472,"Ġinterchange":7473,"Ġbroad":7474,"Ġcapital":7475,"Ġcaparison":7476,"Ġhurried":7477,"Ġchamberlain":7478,"Ġcreated":7479,"Ġcreatures":7480,"Ġcowardice":7481,"Ġlimits":7482,"Ġpuff":7483,"Ġpuppet":7484,"Ġrebel":7485,"Ġrebuke":7486,"Ġscorns":7487,"Ġwitnesses":7488,"Ġinsulting":7489,"ĠMercy":7490,"Ġscarlet":7491,"ĠChristopher":7492,"Ġidly":7493,"Ġhideous":7494,"Ġbeastly":7495,"ĠGregory":7496,"ĠJoin":7497,"Ġfills":7498,"Ġstrumpet":7499,"Ġinjurious":7500,"Ġinjuries":7501,"Ġfamish":7502,"ĠTwenty":7503,"ĠBelike":7504,"Ġsolely":7505,"Ġgovernor":7506,"Ġmutiny":7507,"Ġgrandfather":7508,"Ġdrunkard":7509,"Ġscholar":7510,"Ġlustful":7511,"Ġthreats":7512,"Ġindiffe":7513,"Ġindirect":7514,"ĠMeasure":7515,"ĠMeantime":7516,"ĠEnough":7517,"Ġsafer":7518,"Ġpursued":7519,"Ġmounting":7520,"Ġfeat":7521,"Ġcaptive":7522,"ĠConsider":7523,"ĠVerily":7524,"Ġfollies":7525,"Ġcontrad":7526,"Ġremedies":7527,"Ġunderstanding":7528,"Ġgentler":7529,"ĠFlore":7530,"ĠFloriz":7531,"Ġdegrees":7532,"Ġdemands":7533,"ĠNeighb":7534,"Ġgreetings":7535,"Ġextremest":7536,"Ġtriumphs":7537,"Ġscarcely":7538,"piring":7539,"Ġbachelor":7540,"Ġfarthest":7541,"Ġfaintly":7542,"Ġdwells":7543,"Ġthroats":7544,"Ġgait":7545,"Ġgaol":7546,"Ġgape":7547,"Ġgaoler":7548,"Ġchastity":7549,"Ġchastisement":7550,"Ġmiseries":7551,"Ġconditions":7552,"Ġhunger":7553,"Ġfirmly":7554,"Ġholid":7555,"Ġbefal":7556,"Ġbefits":7557,"Ġinclination":7558,"Ġrelig":7559,"Ġunborn":7560,"Ġunlawful":7561,"Ġbootless":7562,"Ġschoolmaster":7563,"Ġfruitful":7564,"Ġfeeding":7565,"Ġstooping":7566,"ĠLovel":7567,"Ġnecessary":7568,"Ġimportune":7569,"Ġcreate":7570,"Ġdecay":7571,"Ġknightly":7572,"Ġknighthood":7573,"Ġshrink":7574,"Ġshriek":7575,"Ġfrighted":7576,"Ġroundly":7577,"Ġtreachery":7578,"Ġassistance":7579,"Ġdelights":7580,"Ġutterance":7581,"actors":7582,"Ġlouder":7583,"ĠShame":7584,"Ġstarve":7585,"Ġambition":7586,"Ġjealousies":7587,"Ġpersuasion":7588,"Ġerror":7589,"Ġcalumny":7590,"Ġphysician":7591,"Ġbeware":7592,"Ġweighty":7593,"Ġsupreme":7594,"Ġadmir":7595,"Ġpenitence":7596,"Ġsolemnity":7597,"Ġwolves":7598,"Ġwonders":7599,"Ġbaseness":7600,"Ġbudge":7601,"Ġdiadem":7602,"Ġrewards":7603,"ĠRepent":7604,"Ġcombat":7605,"Ġpronounced":7606,"Ġargos":7607,"Ġtrembles":7608,"Ġpublicly":7609,"whelm":7610,"Ġmillions":7611,"Ġmagic":7612,"Ġhazel":7613,"Ġmerely":7614,"ĠCalais":7615,"ĠElizab":7616,"Ġapprehens":7617,"Ġgreyh":7618,"Ġcholeric":7619,"Ġthorns":7620,"Ġgloves":7621,"ĠBrakenbury":7622,"ĠSeize":7623,"Ġnobler":7624,"Ġworthily":7625,"Ġadvertised":7626,"Ġperjury":7627,"Ġwitchcra":7628,"Ġbrawl":7629,"Ġbrawling":7630,"Ġcircumstances":7631,"This":7632,"glass":7633,"Ġachieve":7634,"Ġachieved":7635,"Ġsyll":7636,"Ġwinged":7637,"Ġfunction":7638,"Ġdifference":7639,"Ġhorror":7640,"ĠTarqu":7641,"ĠSmile":7642,"ĠSixth":7643,"Ġforsake":7644,"ĠCondemn":7645,"Ġevents":7646,"Ġreceives":7647,"ĠDarest":7648,"Ġvillany":7649,"Ġadmitted":7650,"Ġclimb":7651,"Ġbeguile":7652,"ĠAntiates":7653,"gnant":7654,"mongst":7655,"Ġtimeless":7656,"Ġwidows":7657,"Ġnapkin":7658,"ĠAffection":7659,"ĠCleomenes":7660,"Ġdebase":7661,"Ġsuperfl":7662,"ĠKnock":7663,"Ġsplit":7664,"Ġvolume":7665,"Ġdisguised":7666,"Ġscolding":7667,"Ġcouncil":7668,"Ġcouncils":7669,"Ġcurtain":7670,"ĠAmongst":7671,"ĠBetween":7672,"ĠBetwixt":7673,"Ġbaggage":7674,"Ġhomage":7675,"Ġhigher":7676,"ĠApothecary":7677,"ĠWrite":7678,"Ġhaughty":7679,"ĠGreece":7680,"ĠPercy":7681,"Ġunfeigned":7682,"Ġcontroversy":7683,"Ġappeared":7684,"Ġrestraint":7685,"Ġbankrupt":7686,"Ġdragon":7687,"ĠAttend":7688,"ĠDispatch":7689,"Ġtransported":7690,"Ġsaucy":7691,"Ġmourning":7692,"Ġcentre":7693,"Ġpicture":7694,"Ġsociety":7695,"ĠEmilia":7696,"ĠEvermore":7697,"Ġanchor":7698,"Ġshelter":7699,"Ġragged":7700,"Ġscape":7701,"Ġimperial":7702,"Ġrestored":7703,"Ġlecture":7704,"Ġsmiling":7705,"Ġmerrily":7706,"Ġinferior":7707,"Ġdivorce":7708,"ĠWelshmen":7709,"Ġexpedition":7710,"Ġtroublous":7711,"Ġinsolence":7712,"Ġconcluded":7713,"Ġtestimony":7714,"Ġreckoning":7715,"ebus":7716,"Ġsands":7717,"Ġcordial":7718,"Ġpestilence":7719,"Ġpupil":7720,"ĠTouching":7721,"ĠHarp":7722,"Ġugly":7723,"ĠOverdone":7724,"Ġashore":7725,"Ġvulgar":7726,"Ġvassal":7727,"Ġamazement":7728,"osterous":7729,"Ġcanopy":7730,"Ġplaints":7731,"Ġdisobed":7732,"Ġrancour":7733,"Ġnightingale":7734,"Ġwhistle":7735,"Ġharlot":7736,"Ġwelcomes":7737,"Ġterritories":7738,"Ġpuissant":7739,"ĠAdvance":7740,"Ġmedicine":7741,"Ġacknowledge":7742,"Gainst":7743,"iquity":7744,"Ġtonight":7745,"Ġsinew":7746,"Ġwestern":7747,"Ġfestival":7748,"Ġfemale":7749,"Ġcuckold":7750,"Ġlungs":7751,"Ġobtain":7752,"Ġprunes":7753,"ĠBONA":7754,"ĠSURREY":7755,"Ġnotwithstanding":7756,"ĠHercules":7757,"Ġeloqu":7758,"ĠLodowick":7759,"ĠFifth":7760,"ĠFrancis":7761,"ĠGrandam":7762,"ĠPhoebus":7763,"ĠPatrician":7764,"ĠPhaethon":7765,"Ġsolicit":7766,"ĠNATHANIEL":7767,"Ġvineyard":7768,"Ġaltogether":7769,"Ġrascals":7770,"Ġprecedent":7771,"Ġprerogative":7772,"Ġperemptory":7773,"Ġelsewhere":7774,"Ġunderneath":7775,"Ġmerriment":7776,"Ġindifferent":7777,"ĠFlorizel":7778,"ĠElizabeth":7779,"Ġapprehension":7780,"Ġwitchcraft":7781,"'!":7782,"'--":7783,"ALIS":7784,"CI":7785,"Fore":7786,"Good":7787,"Hear":7788,"It":7789,"LU":7790,"My":7791,"Soul":7792,"Ty":7793,"Tell":7794,"We":7795,"av":7796,"aus":7797,"avery":7798,"aving":7799,"acious":7800,"bu":7801,"bon":7802,"bes":7803,"bat":7804,"bri":7805,"bast":7806,"book":7807,"bel":7808,"bred":7809,"bham":7810,"brain":7811,"co":7812,"cr":7813,"can":7814,"cas":7815,"chard":7816,"cats":7817,"cued":7818,"din":7819,"dis":7820,"dent":7821,"dra":7822,"dur":7823,"dro":7824,"dict":7825,"door":7826,"ele":7827,"ech":7828,"eress":7829,"eases":7830,"fly":7831,"fend":7832,"fty":7833,"fix":7834,"favour":7835,"gom":7836,"gher":7837,"gone":7838,"gress":7839,"gia":7840,"gging":7841,"hill":7842,"hra":7843,"hoop":7844,"ias":7845,"ige":7846,"iod":7847,"iber":7848,"iable":7849,"iction":7850,"iby":7851,"journ":7852,"lord":7853,"las":7854,"lore":7855,"lous":7856,"lves":7857,"lorn":7858,"lings":7859,"lause":7860,"my":7861,"min":7862,"mast":7863,"mind":7864,"mak":7865,"mary":7866,"mony":7867,"minous":7868,"mission":7869,"nit":7870,"net":7871,"nut":7872,"nel":7873,"oz":7874,"oison":7875,"pse":7876,"pter":7877,"pho":7878,"pol":7879,"peak":7880,"pence":7881,"pire":7882,"press":7883,"piece":7884,"poses":7885,"rings":7886,"roop":7887,"song":7888,"sick":7889,"sia":7890,"sby":7891,"spo":7892,"school":7893,"te":7894,"ton":7895,"test":7896,"take":7897,"tree":7898,"tered":7899,"tsey":7900,"uity":7901,"ubs":7902,"vion":7903,"vity":7904,"wh":7905,"ween":7906,"wench":7907,"worth":7908,"warn":7909,"women":7910,"yally":7911,"ymph":7912,"zwater":7913,"Ġ&":7914,"Ġtum":7915,"Ġtire":7916,"Ġtatter":7917,"Ġtides":7918,"Ġtunes":7919,"Ġtales":7920,"Ġteeming":7921,"Ġtumbling":7922,"hear":7923,"Ġau":7924,"Ġaqu":7925,"Ġaust":7926,"Ġaery":7927,"Ġaches":7928,"Ġsly":7929,"Ġsurn":7930,"Ġsongs":7931,"Ġmot":7932,"Ġmow":7933,"Ġming":7934,"Ġmart":7935,"Ġmap":7936,"Ġmass":7937,"Ġmute":7938,"Ġwra":7939,"Ġware":7940,"Ġwaning":7941,"Ġwalks":7942,"inet":7943,"inance":7944,"inable":7945,"inite":7946,"reef":7947,"reach":7948,"reement":7949,"hast":7950,"happ":7951,"nders":7952,"Ġbone":7953,"Ġbau":7954,"Ġbind":7955,"Ġbate":7956,"Ġbust":7957,"Ġbide":7958,"Ġbatter":7959,"Ġbier":7960,"Ġbale":7961,"Ġbench":7962,"Ġbash":7963,"Ġbills":7964,"isc":7965,"isk":7966,"isle":7967,"Ġfen":7968,"Ġfed":7969,"Ġfut":7970,"Ġfate":7971,"Ġfence":7972,"Ġfile":7973,"Ġfester":7974,"Ġfees":7975,"Ġfowl":7976,"Ġfickle":7977,"Ġfathom":7978,"ĠIrish":7979,"erate":7980,"erman":7981,"eria":7982,"erwhelm":7983,"lla":7984,"itan":7985,"itche":7986,"once":7987,"onour":7988,"Ġdun":7989,"Ġdaint":7990,"Ġdial":7991,"Ġdastard":7992,"Ġdaring":7993,"Ġduteous":7994,"Ġdainty":7995,"Ġcy":7996,"Ġcot":7997,"Ġced":7998,"Ġcri":7999,"Ġcas":8000,"Ġcert":8001,"Ġcuff":8002,"Ġcele":8003,"Ġna":8004,"Ġnea":8005,"Ġnerves":8006,"Ġnearer":8007,"Ġniece":8008,"Ġnuns":8009,"Ġnymph":8010,"Ġninet":8011,"Ġlain":8012,"Ġlame":8013,"Ġlass":8014,"Ġlaughter":8015,"Ġlaz":8016,"Ġlecher":8017,"Ġyard":8018,"Ġyew":8019,"Ġyellow":8020,"Ġthra":8021,"Ġthrew":8022,"Ġthorough":8023,"Ġthreef":8024,"arr":8025,"arth":8026,"arks":8027,"arling":8028,"arated":8029,"Ġhook":8030,"Ġhilt":8031,"Ġhint":8032,"Ġhounds":8033,"Ġhills":8034,"Ġox":8035,"Ġost":8036,"Ġoce":8037,"Ġominous":8038,"Ġtoss":8039,"Ġtoys":8040,"Ġphe":8041,"Ġpir":8042,"Ġpith":8043,"Ġpoo":8044,"Ġpul":8045,"Ġpark":8046,"Ġpens":8047,"Ġpotion":8048,"Ġpines":8049,"Ġpals":8050,"Ġpiled":8051,"Ġportion":8052,"ĠTr":8053,"ĠTend":8054,"ĠTong":8055,"ĠTakes":8056,"ĠTrem":8057,"ĠTiber":8058,"ĠAg":8059,"Ġhen":8060,"Ġhew":8061,"Ġheal":8062,"oting":8063,"oted":8064,"stood":8065,"stool":8066,"ange":8067,"anous":8068,"anks":8069,"Ġgle":8070,"Ġgay":8071,"Ġgir":8072,"Ġgear":8073,"Ġgilt":8074,"Ġgild":8075,"Ġgorge":8076,"Ġginger":8077,"atin":8078,"athan":8079,"atory":8080,"atiate":8081,"Ġbeho":8082,"ĠWor":8083,"ĠWent":8084,"Ġinhabit":8085,"Ġhab":8086,"Ġhaven":8087,"ceives":8088,"lex":8089,"leven":8090,"lehill":8091,"ldren":8092,"uto":8093,"utus":8094,"utches":8095,"ĠBore":8096,"ĠBea":8097,"ĠBreat":8098,"ĠBase":8099,"ĠBret":8100,"ĠBrist":8101,"ĠBrand":8102,"ĠBanish":8103,"ĠBLU":8104,"imple":8105,"ĠSent":8106,"ĠSad":8107,"ĠSel":8108,"ĠSorrow":8109,"ĠSland":8110,"ĠSeal":8111,"ĠSleep":8112,"ĠSilence":8113,"ĠSALIS":8114,"ĠHal":8115,"ĠHard":8116,"ĠHap":8117,"ĠHallow":8118,"ĠHung":8119,"cho":8120,"child":8121,"ĠMeet":8122,"ĠMab":8123,"ĠMount":8124,"ĠMere":8125,"Ġforms":8126,"Ġforlorn":8127,"keep":8128,"ĠCot":8129,"ĠCut":8130,"ĠCro":8131,"ĠChi":8132,"ĠCare":8133,"ĠCarl":8134,"Ġweb":8135,"ille":8136,"Ġeg":8137,"Ġel":8138,"Ġew":8139,"Ġegg":8140,"enting":8141,"ently":8142,"rian":8143,"ribe":8144,"ĠOpp":8145,"Ġsty":8146,"Ġstart":8147,"Ġstall":8148,"Ġstage":8149,"Ġstuck":8150,"Ġstint":8151,"Ġstew":8152,"Ġstray":8153,"Ġsteter":8154,"Ġstring":8155,"Ġstarts":8156,"Ġstrat":8157,"Ġkern":8158,"Ġkenn":8159,"Ġkitche":8160,"ĠLad":8161,"ĠLess":8162,"ĠLast":8163,"ĠLuke":8164,"ĠLittle":8165,"ĠLud":8166,"ĠLift":8167,"ĠLives":8168,"ĠLatin":8169,"ĠFer":8170,"ĠFar":8171,"ĠFound":8172,"ĠFRAN":8173,"ĠFool":8174,"ĠFellow":8175,"ĠGall":8176,"ĠGirl":8177,"ĠGiven":8178,"Ġrevers":8179,"Ġrelish":8180,"Ġrelease":8181,"Ġrevell":8182,"Ġrehear":8183,"raign":8184,"lysses":8185,"Ġliars":8186,"ashy":8187,"asci":8188,"asite":8189,"ĠPe":8190,"ĠPit":8191,"ĠPhi":8192,"ĠPil":8193,"ĠPale":8194,"urity":8195,"urps":8196,"urbs":8197,"urope":8198,"alo":8199,"alty":8200,"Ġsoar":8201,"Ġsober":8202,"Ġsolace":8203,"Ġascend":8204,"Ġaspiring":8205,"ĠRus":8206,"ĠRag":8207,"ĠRef":8208,"ĠRoss":8209,"ĠNear":8210,"ĠNight":8211,"ĠNine":8212,"ĠNathan":8213,"ARL":8214,"vering":8215,"ĠYonder":8216,"Ġshamed":8217,"Ġdol":8218,"Ġdoit":8219,"Ġdoings":8220,"Ġnov":8221,"ami":8222,"ĠExton":8223,"ĠEurope":8224,"ĠEARL":8225,"ĠDou":8226,"ĠDre":8227,"ĠDion":8228,"ĠDight":8229,"ĠDie":8230,"ĠDick":8231,"ĠDeep":8232,"ĠDukes":8233,"usc":8234,"using":8235,"usale":8236,"usual":8237,"Ġsex":8238,"Ġsevent":8239,"ifter":8240,"geon":8241,"geal":8242,"ĠThither":8243,"ĠThrong":8244,"Ġsues":8245,"Ġsulp":8246,"ĠTold":8247,"ĠTogether":8248,"Ġherds":8249,"rung":8250,"ruised":8251,"Ġant":8252,"Ġangu":8253,"ternal":8254,"arded":8255,"hance":8256,"Ġspell":8257,"Ġspear":8258,"Ġspurn":8259,"Ġspace":8260,"Ġsparing":8261,"ellows":8262,"Ġfails":8263,"Ġfabric":8264,"this":8265,"thren":8266,"ilver":8267,"Ġknell":8268,"Ġknack":8269,"Ġknavery":8270,"Ġvest":8271,"Ġvio":8272,"Ġvap":8273,"Ġvices":8274,"cts":8275,"Ġwhate":8276,"Ġshine":8277,"Ġshouts":8278,"ulation":8279,"antial":8280,"Ġupper":8281,"Ġgoodman":8282,"quis":8283,"qual":8284,"quess":8285,"quaint":8286,"quiet":8287,"Ġmuse":8288,"Ġpry":8289,"Ġmanly":8290,"Ġmanacles":8291,"Ġmankind":8292,"Ġmangled":8293,"Ġatone":8294,"ĠVar":8295,"Ġwheres":8296,"Ġwheels":8297,"Ġcony":8298,"Ġconver":8299,"Ġconvers":8300,"Ġconvent":8301,"Ġamity":8302,"Ġamended":8303,"endom":8304,"icing":8305,"ican":8306,"icide":8307,"icester":8308,"bled":8309,"Ġshepher":8310,"Ġsheets":8311,"Ġblots":8312,"Ġblasp":8313,"vener":8314,"Ġgoest":8315,"ĠForget":8316,"ĠForrest":8317,"ĠForgive":8318,"empl":8319,"eminate":8320,"areth":8321,"oln":8322,"olour":8323,"ĠHelen":8324,"Ġhatches":8325,"ersha":8326,"ershire":8327,"resseth":8328,"Ġswim":8329,"Ġswine":8330,"Ġswifter":8331,"Ġorchard":8332,"Ġbrine":8333,"Ġbrittle":8334,"pper":8335,"Ġusage":8336,"odity":8337,"Ġunity":8338,"Ġunman":8339,"Ġunaw":8340,"Ġunlo":8341,"Ġunsc":8342,"Ġunivers":8343,"Ġunusual":8344,"igation":8345,"hyme":8346,"Ġquest":8347,"eliver":8348,"ĠWhence":8349,"Ġjar":8350,"Ġjump":8351,"Ġhoped":8352,"cible":8353,"cipl":8354,"Ġprover":8355,"Ġproduce":8356,"Ġproffer":8357,"Ġsails":8358,"Ġplent":8359,"umn":8360,"people":8361,"ĠJames":8362,"ĠJule":8363,"Ġdislike":8364,"Ġdishes":8365,"Ġdisposed":8366,"Ġdisloy":8367,"Ġdiseases":8368,"Ġdiscipl":8369,"Ġenroll":8370,"Ġenjoin":8371,"Ġenfranch":8372,"Ġpoll":8373,"Ġoutst":8374,"Ġhowl":8375,"pted":8376,"pture":8377,"unch":8378,"Ġtrudge":8379,"Ġhandle":8380,"Ġsomebod":8381,"ĠWeep":8382,"Ġmarquess":8383,"Ġrood":8384,"Ġrings":8385,"Ġrates":8386,"ĠInf":8387,"acket":8388,"Ġhearth":8389,"Ġability":8390,"Ġabuses":8391,"Ġexha":8392,"Ġexternal":8393,"Ġfoaming":8394,"Ġdaylight":8395,"Ġrod":8396,"Ġroad":8397,"Ġrope":8398,"Ġrogues":8399,"Ġroyally":8400,"Ġtellus":8401,"Ġwhereupon":8402,"agine":8403,"agate":8404,"agems":8405,"usters":8406,"ĠUlysses":8407,"Ġrip":8408,"Ġribb":8409,"aved":8410,"Ġarticles":8411,"Ġarticle":8412,"Ġwary":8413,"Ġflour":8414,"Ġflag":8415,"Ġfliers":8416,"Ġflayed":8417,"ĠMariner":8418,"Ġslide":8419,"Ġslanders":8420,"Ġfearless":8421,"Ġgreatly":8422,"ĠBeg":8423,"bery":8424,"bering":8425,"Ġbrethren":8426,"Ġfairies":8427,"ccess":8428,"ccustom":8429,"apes":8430,"ĠYourself":8431,"izard":8432,"oughby":8433,"Ġcalling":8434,"Ġpartake":8435,"Ġpartial":8436,"Ġraw":8437,"Ġrarest":8438,"Ġraze":8439,"Ġrabble":8440,"Ġadul":8441,"Ġadorn":8442,"Ġadult":8443,"Ġadder":8444,"Ġcommit":8445,"Ġcommodity":8446,"Ġpregnant":8447,"Ġclothe":8448,"Ġsweeten":8449,"Ġperused":8450,"Ġperchance":8451,"Ġperadventure":8452,"Ġperiod":8453,"Ġpresum":8454,"Ġpresses":8455,"Ġprescri":8456,"Ġscra":8457,"Ġscare":8458,"Ġscars":8459,"Ġscouts":8460,"Ġnightly":8461,"assad":8462,"liction":8463,"livion":8464,"Ġmoans":8465,"Ġmolehill":8466,"Ġapplause":8467,"Ġkeen":8468,"Ġremiss":8469,"Ġremote":8470,"pery":8471,"peror":8472,"peration":8473,"abb":8474,"abour":8475,"ilty":8476,"Ġrepaid":8477,"Ġreprieve":8478,"Ġlongs":8479,"Ġlonging":8480,"Ġintends":8481,"Ġinterest":8482,"Ġlively":8483,"Ġconsort":8484,"Ġconsume":8485,"Ġconserves":8486,"Ġmightily":8487,"ĠSirs":8488,"Ġrub":8489,"Ġresteth":8490,"Ġrestrain":8491,"Ġcrowned":8492,"Ġpeck":8493,"Ġpeasant":8494,"ffic":8495,"Ġcourses":8496,"Ġlevied":8497,"Ġenters":8498,"Ġharms":8499,"Ġharder":8500,"Ġtongueless":8501,"ĠStir":8502,"ĠStep":8503,"ĠStop":8504,"ĠStaf":8505,"ĠProdig":8506,"Ġkeeping":8507,"Ġslender":8508,"Ġresp":8509,"Ġreserved":8510,"Ġresidence":8511,"forward":8512,"iously":8513,"Ġcompell":8514,"Ġhourly":8515,"Ġendow":8516,"Ġendea":8517,"retion":8518,"Ġpricks":8519,"ieldy":8520,"Ġpurged":8521,"Ġpurses":8522,"Ġpurposes":8523,"Ġchain":8524,"Ġchaff":8525,"Ġsuborn":8526,"Ġsubsc":8527,"Ġsubmission":8528,"Ġsuburbs":8529,"Ġsmack":8530,"Ġsmiled":8531,"Ġsmelt":8532,"ĠWilloughby":8533,"asonable":8534,"ected":8535,"Ġtraged":8536,"Ġtragic":8537,"Ġtraffic":8538,"Ġcoats":8539,"Ġhush":8540,"Ġtreble":8541,"Ġneedy":8542,"Ġbragg":8543,"Ġbrazen":8544,"Ġhelms":8545,"Ġseemed":8546,"Ġseemeth":8547,"Ġrightly":8548,"Ġcheers":8549,"Ġcharms":8550,"Ġcharters":8551,"Ġcharitable":8552,"Ġconfined":8553,"Ġhandsome":8554,"Ġimpre":8555,"Ġimpose":8556,"Ġimposition":8557,"Ġserving":8558,"Ġmistook":8559,"Ġglister":8560,"Ġfortnight":8561,"Ġfortunate":8562,"Ġbringing":8563,"Ġpasses":8564,"Ġpleaseth":8565,"Ġbeshrew":8566,"Ġbesiege":8567,"Ġthrong":8568,"mbling":8569,"Ġjustly":8570,"Ġjustify":8571,"Ġwrongfully":8572,"Ġhappen":8573,"Ġplaced":8574,"ension":8575,"Ġeyeb":8576,"Ġhelping":8577,"Ġlesson":8578,"Ġbusied":8579,"Ġfooling":8580,"Ġchid":8581,"Ġchides":8582,"Ġchron":8583,"Ġsuns":8584,"Ġobdur":8585,"Ġoblivion":8586,"ĠUnb":8587,"ĠUnc":8588,"ĠUnw":8589,"Ġcourts":8590,"jects":8591,"ĠAlone":8592,"Ġstrip":8593,"Ġstride":8594,"Ġstripes":8595,"Ġwomanish":8596,"ivity":8597,"overed":8598,"Ġturning":8599,"Ġstreak":8600,"Ġtalked":8601,"Ġhumane":8602,"Ġoverheard":8603,"Ġoverthrow":8604,"Ġbelongs":8605,"Ġibat":8606,"Ġbuilt":8607,"Ġburial":8608,"Ġinstance":8609,"Ġinstead":8610,"Ġattach":8611,"Ġplays":8612,"ĠWouldst":8613,"Ġwelkin":8614,"Ġcountryman":8615,"Ġdances":8616,"Ġcurs":8617,"Ġcurbs":8618,"Ġsending":8619,"Ġdoubted":8620,"Ġdoubtless":8621,"Ġwishing":8622,"Ġreasonable":8623,"Ġdiscred":8624,"Ġdiscreet":8625,"Ġdiscovery":8626,"Ġdiscretion":8627,"Ġstrain":8628,"Ġbreaths":8629,"Ġcommandment":8630,"Ġgiant":8631,"Ġstrang":8632,"Ġsecurity":8633,"Ġsenis":8634,"Ġwinding":8635,"Ġremembe":8636,"ĠSub":8637,"ĠSuff":8638,"Ġswearing":8639,"Ġtending":8640,"Ġdepth":8641,"Ġgreed":8642,"Ġgreets":8643,"Ġkissing":8644,"Ġawe":8645,"Ġawful":8646,"Ġtemperate":8647,"Ġsupple":8648,"eyed":8649,"Ġcarrion":8650,"Ġrequite":8651,"Ġrequital":8652,"Ġspoils":8653,"Ġlamp":8654,"Ġmete":8655,"Ġsoonest":8656,"ĠJulius":8657,"ĠSpoke":8658,"Ġfooting":8659,"Ġwarrants":8660,"Ġsaddle":8661,"ĠPlain":8662,"ĠPlace":8663,"ĠPluck":8664,"ĠPlashy":8665,"Ġreturns":8666,"Ġmarrying":8667,"Ġthroughly":8668,"Ġchoke":8669,"Ġcolder":8670,"ĠMontgom":8671,"Ġrecount":8672,"Ġstrangely":8673,"Ġasked":8674,"Ġplucked":8675,"ĠWhite":8676,"Ġbats":8677,"Ġdesired":8678,"Ġentreated":8679,"Ġinstructions":8680,"Ġordain":8681,"Ġordinance":8682,"ĠSenators":8683,"Ġvisor":8684,"ixture":8685,"Ġwearing":8686,"ĠGlad":8687,"Ġquicken":8688,"Ġhardy":8689,"Ġwooers":8690,"Ġfitter":8691,"Ġfitting":8692,"Ġopening":8693,"Ġbecame":8694,"ĠSeeking":8695,"Ġexecut":8696,"Ġincur":8697,"Ġincapable":8698,"Ġinfirm":8699,"Ġinfancy":8700,"Ġinfamy":8701,"Ġinflu":8702,"Ġinfinite":8703,"Ġissues":8704,"Ġdelivery":8705,"Ġquarre":8706,"Ġprofound":8707,"voc":8708,"Ġparle":8709,"Ġparch":8710,"Ġparcel":8711,"Ġparadise":8712,"Ġparlous":8713,"Ġparasite":8714,"ĠBecome":8715,"Ġspeedily":8716,"Ġstrengthen":8717,"cession":8718,"Ġforerun":8719,"Ġforefather":8720,"Ġdivide":8721,"Ġposts":8722,"Ġposterns":8723,"ĠProud":8724,"ĠPrinces":8725,"Ġshorten":8726,"score":8727,"scaped":8728,"Ġvehe":8729,"Ġtitles":8730,"Ġwhipped":8731,"Ġwondering":8732,"Ġbites":8733,"Ġbiting":8734,"Ġseeking":8735,"Ġmurdering":8736,"Ġagony":8737,"Ġagreement":8738,"Ġwatchful":8739,"Ġdistrib":8740,"Ġdistinct":8741,"Ġdistemper":8742,"Ġchangeling":8743,"Ġacting":8744,"Ġwasted":8745,"ĠTrans":8746,"Ġstirru":8747,"Ġclouded":8748,"Ġentering":8749,"Ġenterpr":8750,"Ġsignories":8751,"Ġdrinks":8752,"Ġpraised":8753,"Ġgarlic":8754,"Ġbegging":8755,"Ġbeggary":8756,"Ġdeliverance":8757,"Ġskin":8758,"Ġsickly":8759,"ĠChurch":8760,"Ġordering":8761,"Ġorderly":8762,"Ġwishes":8763,"ĠLORDS":8764,"Ġregion":8765,"Ġregreet":8766,"Ġconsuls":8767,"Ġcheerful":8768,"Ġfourth":8769,"Ġdug":8770,"Ġducats":8771,"Ġcrad":8772,"Ġcrimes":8773,"Ġcrutch":8774,"Ġcrutches":8775,"Ġliberties":8776,"Ġsoften":8777,"Ġsoftly":8778,"ĠRevol":8779,"verns":8780,"Ġencomp":8781,"Ġencourage":8782,"Ġmoveables":8783,"Ġbeginning":8784,"Ġconsented":8785,"Ġfrowning":8786,"Ġfeasting":8787,"Ġgrove":8788,"Ġexpost":8789,"changing":8790,"Ġestab":8791,"hematic":8792,"Ġmalicious":8793,"Ġbarb":8794,"Ġbarr":8795,"Ġbargain":8796,"Ġdropp":8797,"Ġdarkly":8798,"ĠAbbot":8799,"ĠAbhors":8800,"Ġspeechless":8801,"Ġvictorious":8802,"Ġbriefly":8803,"Ġpenury":8804,"Ġgotten":8805,"Ġintercept":8806,"Ġintercession":8807,"Ġevident":8808,"Ġsummon":8809,"Ġrespects":8810,"Ġcomplices":8811,"Ġvisiting":8812,"soe":8813,"Ġbroils":8814,"Ġcapable":8815,"Ġworshipful":8816,"Ġfresher":8817,"Ġfreshest":8818,"Ġcreation":8819,"Ġlimb":8820,"Ġopposed":8821,"Ġviolate":8822,"Ġapproaches":8823,"Ġleader":8824,"ĠStanding":8825,"Ġpatiently":8826,"Ġlamentations":8827,"Ġbawdy":8828,"Ġcleft":8829,"Ġlacks":8830,"Ġlaboured":8831,"ĠBlood":8832,"ĠBlind":8833,"ĠBlack":8834,"ĠBlush":8835,"ĠMercury":8836,"Ġeating":8837,"ĠThinking":8838,"Ġunwill":8839,"ĠChristendom":8840,"ackey":8841,"Ġsurm":8842,"Ġsurly":8843,"Ġsurvey":8844,"ĠConst":8845,"Ġbirths":8846,"Ġcertainly":8847,"Ġpainful":8848,"ĠAdam":8849,"ĠAmazon":8850,"ĠBrought":8851,"ĠExcept":8852,"Ġfavourable":8853,"Ġproceeding":8854,"Ġtorches":8855,"Ġtorments":8856,"Ġshift":8857,"Ġwildly":8858,"Ġcaus":8859,"Ġinjured":8860,"Ġurging":8861,"Ġpleasures":8862,"ggard":8863,"Ġapothecary":8864,"Ġshock":8865,"Ġmeditation":8866,"Ġemulation":8867,"Ġdooms":8868,"Ġuncertain":8869,"Ġcontinued":8870,"ĠEnglishman":8871,"Ġmutinies":8872,"Ġlane":8873,"Ġstealing":8874,"Ġrefuge":8875,"Ġtempor":8876,"bborn":8877,"Ġdrowning":8878,"ĠMeaning":8879,"Ġeffects":8880,"Ġstole":8881,"ĠEnforce":8882,"ĠEnvir":8883,"Ġswiftly":8884,"Ġdesperately":8885,"Ġpursues":8886,"Ġdoublet":8887,"Ġcountermand":8888,"Ġcounterpo":8889,"Ġauthorities":8890,"Ġbastardy":8891,"Ġfruits":8892,"Ġcorners":8893,"Ġelders":8894,"Ġstudies":8895,"Ġstudied":8896,"Ġseverity":8897,"Ġenjoys":8898,"Ġwretchedness":8899,"Ġbeggarly":8900,"Ġgentry":8901,"Ġdegenerate":8902,"ĠHeavens":8903,"Ġbait":8904,"Ġdwelling":8905,"Ġcustomary":8906,"Ġbutchers":8907,"Ġunfit":8908,"Ġadded":8909,"Ġprivately":8910,"Ġverge":8911,"Ġverity":8912,"Ġwagon":8913,"Ġrelation":8914,"Ġrelieve":8915,"Ġdealing":8916,"Ġshores":8917,"Ġarrival":8918,"Ġunpre":8919,"Ġsmoking":8920,"ĠShowing":8921,"Ġprophecies":8922,"attling":8923,"Ġstabbed":8924,"ĠLoved":8925,"Ġspeeches":8926,"Ġnecessities":8927,"Ġproofs":8928,"Ġprevails":8929,"Ġjointure":8930,"Ġembracements":8931,"Ġinnocents":8932,"Ġesc":8933,"Ġespecially":8934,"Ġedict":8935,"Ġdriven":8936,"Ġcreeping":8937,"Ġelection":8938,"Ġelements":8939,"Ġdecree":8940,"Ġdecrees":8941,"Ġsailors":8942,"Ġplotted":8943,"Ġprofession":8944,"rehend":8945,"Ġballads":8946,"Ġdetested":8947,"ĠRescue":8948,"Ġambush":8949,"Ġambassad":8950,"Ġoffenders":8951,"Ġheaviness":8952,"Ġheavily":8953,"Ġpersuaded":8954,"Ġexpressly":8955,"Ġbandy":8956,"Ġbonds":8957,"Ġbondage":8958,"Ġcalf":8959,"Ġcensured":8960,"Ġphysicians":8961,"Ġbewray":8962,"Ġbewitch":8963,"Ġvanqu":8964,"Ġvanish":8965,"Ġdeserts":8966,"Ġaffected":8967,"Ġleanness":8968,"Ġaccusations":8969,"Ġpetitions":8970,"Ġpunishment":8971,"Ġbasil":8972,"Ġfeeble":8973,"Ġfashions":8974,"Ġdivers":8975,"Ġpikes":8976,"ĠBearing":8977,"ĠCobham":8978,"ĠRepair":8979,"Ġseparated":8980,"Ġcomplete":8981,"Ġargument":8982,"Ġarguments":8983,"Ġrosemary":8984,"Ġadvancement":8985,"Ġtemperance":8986,"itae":8987,"Ġhostess":8988,"Ġgrub":8989,"ĠSetting":8990,"Ġshunn":8991,"Ġblocks":8992,"Ġungentle":8993,"Ġquality":8994,"Ġqualities":8995,"Ġqualify":8996,"Ġalteration":8997,"Ġconsidering":8998,"Ġcompanions":8999,"Ġmaidenhead":9000,"Ġvexation":9001,"Ġwaiting":9002,"Ġdirectly":9003,"Ġingrateful":9004,"Ġmorsel":9005,"Ġdigest":9006,"Ġthorny":9007,"Ġglove":9008,"ĠBrave":9009,"Ġmelted":9010,"ĠSebast":9011,"Ġwealthy":9012,"Ġsprites":9013,"Ġworthier":9014,"Ġworthiest":9015,"Ġjewels":9016,"Ġdisperse":9017,"Ġensue":9018,"Ġenforcement":9019,"Ġclamorous":9020,"ĠPlayer":9021,"Ġaffliction":9022,"Ġsymp":9023,"Ġsalute":9024,"Ġmirror":9025,"Ġfiends":9026,"Ġdimm":9027,"Ġdifferen":9028,"Ġceremony":9029,"Ġlinen":9030,"Ġhorrible":9031,"Ġports":9032,"ĠAccursed":9033,"ĠSmall":9034,"Ġforsook":9035,"ĠCondition":9036,"Ġreceipt":9037,"Ġreckless":9038,"Ġvillanous":9039,"Ġmanifested":9040,"Ġuneven":9041,"Ġunjustly":9042,"Ġdispleased":9043,"Ġfloods":9044,"Ġbeguiled":9045,"Ġresisted":9046,"Ġhelmets":9047,"Ġreconciled":9048,"Ġcomplaints":9049,"Ġcomplexions":9050,"boding":9051,"ratitude":9052,"Ġtimorous":9053,"Ġmessage":9054,"Ġbonny":9055,"Ġbonnet":9056,"Ġbuckle":9057,"Ġlineal":9058,"ĠAfric":9059,"ĠAwake":9060,"ĠAwaked":9061,"Ġstumbled":9062,"Ġshameless":9063,"ĠKnows":9064,"Ġspectacle":9065,"Ġspectators":9066,"Ġfactious":9067,"ĠValent":9068,"ĠValeria":9069,"Ġdisguise":9070,"Ġengross":9071,"Ġcoffin":9072,"Ġcoffers":9073,"Ġgratis":9074,"Ġincense":9075,"Ġinnocency":9076,"Ġacquaintance":9077,"shapen":9078,"weigh":9079,"Ġtoucheth":9080,"Ġtrod":9081,"oubted":9082,"Ġmathematic":9083,"Ġfretting":9084,"ĠImagine":9085,"Ġnettle":9086,"Ġlurk":9087,"Ġlurking":9088,"Ġthirsty":9089,"Ġhomicide":9090,"Ġhighest":9091,"ĠApril":9092,"ĠWitness":9093,"ĠWithal":9094,"ĠCastle":9095,"ĠGuild":9096,"ĠPerchance":9097,"Ġdeceased":9098,"ĠDelpho":9099,"Ġblasts":9100,"Ġhopeless":9101,"Ġflinty":9102,"Ġpreparation":9103,"Ġpreposterous":9104,"Ġcontrol":9105,"Ġsubdue":9106,"Ġsubdued":9107,"Ġtrenches":9108,"Ġtrencher":9109,"Ġbeauties":9110,"Ġbeautiful":9111,"Ġsacrifice":9112,"Ġlengthens":9113,"Ġtransport":9114,"Ġsession":9115,"Ġporter":9116,"Ġpainting":9117,"Ġgnaw":9118,"Ġgamut":9119,"Ġgainsay":9120,"ĠSusan":9121,"ĠHonest":9122,"ĠFitzwater":9123,"Ġspotted":9124,"Ġgossips":9125,"Ġunavoided":9126,"Ġunaccustom":9127,"Ġunrevere":9128,"Ġprodigy":9129,"Ġprodigal":9130,"Ġdisinherit":9131,"Ġdisinherited":9132,"Ġabundant":9133,"Ġabundance":9134,"Ġrobbers":9135,"ĠQuick":9136,"Ġaccomplish":9137,"Ġobsequies":9138,"Ġbuzzard":9139,"Ġattorneys":9140,"Ġdrooping":9141,"Ġdetestable":9142,"Ġfantastic":9143,"Ġfantastical":9144,"ĠPersuade":9145,"ĠPersuades":9146,"doing":9147,"tinent":9148,"weary":9149,"Ġmasqu":9150,"Ġbulk":9151,"Ġfifty":9152,"Ġcropp":9153,"Ġcushion":9154,"Ġyesternight":9155,"Ġpowder":9156,"ĠAcquaint":9157,"ĠWestmin":9158,"Ġinvention":9159,"ĠCheer":9160,"Ġeffeminate":9161,"Ġstinking":9162,"Ġresemblance":9163,"ĠPursuivant":9164,"Ġdeformity":9165,"Ġdoleful":9166,"ĠErr":9167,"Ġbutterfly":9168,"ĠDestroy":9169,"Ġannoy":9170,"Ġancestors":9171,"Ġsparkling":9172,"Ġplanet":9173,"Ġdissembling":9174,"Ġrheum":9175,"Ġrigour":9176,"Ġclergy":9177,"Ġeverlasting":9178,"Ġrumour":9179,"Ġaccompany":9180,"Ġchampion":9181,"Ġconfederate":9182,"Ġafterwards":9183,"Ġobscured":9184,"ĠHappily":9185,"Ġcriminal":9186,"Ġsummers":9187,"Ġinsinuate":9188,"Ġunluckily":9189,"Ġunprovided":9190,"Ġmagistrate":9191,"Ġlineaments":9192,"Ġsurprised":9193,"Ġmomentary":9194,"pretation":9195,"withal":9196,"Ġturtle":9197,"Ġtinker":9198,"Ġtreaty":9199,"Ġavouch":9200,"Ġmantle":9201,"Ġfilthy":9202,"Ġderived":9203,"Ġdiligence":9204,"Ġdrowsy":9205,"Ġcandle":9206,"Ġthreshold":9207,"ĠTurks":9208,"Ġbeetle":9209,"seeming":9210,"Ġinveterate":9211,"Ġinheritance":9212,"imois":9213,"ĠHostess":9214,"Ġfornication":9215,"ĠChertsey":9216,"Ġstubborn":9217,"ĠLammas":9218,"Ġassembly":9219,"ĠRedeem":9220,"ĠRenowned":9221,"Ġvigour":9222,"ĠForthwith":9223,"Ġcannib":9224,"Ġorphans":9225,"Ġusurer":9226,"Ġunpleasing":9227,"Ġworships":9228,"ĠAssist":9229,"ĠJerusale":9230,"ĠJuno":9231,"Ġdistinguish":9232,"Ġexclaims":9233,"Ġprecise":9234,"Ġscourge":9235,"Ġchivalry":9236,"Ġappellant":9237,"Ġimmediately":9238,"Ġconspiracy":9239,"Ġchafed":9240,"Ġsuppliant":9241,"Ġinfringe":9242,"Ġforetell":9243,"Ġminstrels":9244,"Ġembraces":9245,"Ġmalignant":9246,"Ġargosy":9247,"ĠTarquin":9248,"Ġeloquence":9249,"CISC":9250,"Heart":9251,"Souls":9252,"Tybalt":9253,"beseeming":9254,"igeia":9255,"minded":9256,"makers":9257,"ozine":9258,"Ġtumult":9259,"Ġaqua":9260,"Ġsurname":9261,"Ġbauble":9262,"Ġbustle":9263,"Ġbattery":9264,"Ġbashful":9265,"Ġfuture":9266,"Ġnearest":9267,"Ġnineteen":9268,"Ġlazy":9269,"Ġthreefold":9270,"Ġpoorest":9271,"ĠTongue":9272,"Ġgirls":9273,"ĠBreathe":9274,"ĠBristol":9275,"ĠBrandon":9276,"ĠBLUNT":9277,"ĠSALISBURY":9278,"ĠHalf":9279,"ĠHallowmas":9280,"ĠMerely":9281,"ĠCrosby":9282,"ĠChildren":9283,"ĠCarlisle":9284,"Ġsteterat":9285,"Ġstratagems":9286,"Ġkennel":9287,"ĠLudlow":9288,"ĠFRANCISC":9289,"ascivious":9290,"ĠPhilip":9291,"ĠRussia":9292,"ĠRagozine":9293,"ĠNathaniel":9294,"ĠDighton":9295,"Ġsulphur":9296,"Ġanguish":9297,"Ġviolet":9298,"Ġshepherds":9299,"Ġunawares":9300,"Ġdisloyal":9301,"Ġsomebody":9302,"Ġadulteress":9303,"ĠStafford":9304,"Ġsubscribe":9305,"Ġobdurate":9306,"Ġremembered":9307,"ĠMontgomery":9308,"Ġinfirmity":9309,"Ġdistinctly":9310,"Ġenterprise":9311,"ĠAbhorson":9312,"ĠSebastian":9313,"Ġmathematics":9314,"ĠDelphos":9315,"ĠWestminster":9316,"ĠJerusalem":9317,"'m":9318,"'ve":9319,"An":9320,"Alas":9321,"Bless":9322,"Come":9323,"Citizen":9324,"Coriol":9325,"Courage":9326,"Charge":9327,"EAS":9328,"Faith":9329,"How":9330,"HER":9331,"Have":9332,"Hold":9333,"HEY":9334,"HRI":9335,"LL":9336,"Lo":9337,"MEN":9338,"No":9339,"OV":9340,"Rome":9341,"Rem":9342,"Sir":9343,"Sic":9344,"Than":9345,"True":9346,"Ver":9347,"When":9348,"Whoop":9349,"Yea":9350,"ait":9351,"aled":9352,"acheth":9353,"bion":9354,"bout":9355,"bol":9356,"bary":9357,"bishop":9358,"cre":9359,"cer":9360,"cke":9361,"crow":9362,"creat":9363,"cence":9364,"corn":9365,"cold":9366,"cass":9367,"cont":9368,"cup":9369,"cures":9370,"content":9371,"cote":9372,"cerity":9373,"dish":9374,"dges":9375,"doubt":9376,"deliver":9377,"ev":9378,"eing":9379,"ece":9380,"eath":9381,"ection":9382,"ext":9383,"fes":9384,"fast":9385,"fond":9386,"fig":9387,"fied":9388,"fellows":9389,"gent":9390,"gess":9391,"gentle":9392,"gger":9393,"gier":9394,"gars":9395,"gments":9396,"goose":9397,"gression":9398,"how":9399,"hum":9400,"hings":9401,"honour":9402,"ii":9403,"ipher":9404,"iency":9405,"jurious":9406,"ky":9407,"kfulness":9408,"lay":9409,"lant":9410,"live":9411,"late":9412,"lies":9413,"lave":9414,"lars":9415,"mo":9416,"mor":9417,"mod":9418,"mple":9419,"match":9420,"merc":9421,"mark":9422,"mock":9423,"music":9424,"mmer":9425,"mouth":9426,"masters":9427,"much":9428,"maker":9429,"nz":9430,"nard":9431,"nant":9432,"nity":9433,"nock":9434,"ney":9435,"ob":9436,"oat":9437,"oil":9438,"oise":9439,"oever":9440,"ogy":9441,"phe":9442,"pit":9443,"par":9444,"pan":9445,"pur":9446,"pore":9447,"pate":9448,"pile":9449,"pray":9450,"point":9451,"pired":9452,"pointed":9453,"portion":9454,"rine":9455,"round":9456,"rates":9457,"rons":9458,"su":9459,"serv":9460,"sorrow":9461,"suck":9462,"simple":9463,"silver":9464,"tri":9465,"tong":9466,"tage":9467,"tide":9468,"terest":9469,"ux":9470,"ugh":9471,"uct":9472,"uel":9473,"uance":9474,"uft":9475,"uities":9476,"ucing":9477,"uiced":9478,"vors":9479,"viol":9480,"vial":9481,"vals":9482,"ville":9483,"would":9484,"wood":9485,"west":9486,"wind":9487,"wall":9488,"why":9489,"worn":9490,"xy":9491,"xcom":9492,"yr":9493,"you":9494,"yers":9495,"yves":9496,"zes":9497,"zalo":9498,"Ġ:":9499,"Ġess":9500,"Ġ--":9501,"Ġounce":9502,"Ġtha":9503,"Ġtar":9504,"Ġtesty":9505,"Ġtush":9506,"Ġtithe":9507,"Ġtires":9508,"Ġtaming":9509,"Ġtilth":9510,"Ġtables":9511,"Ġtalks":9512,"Ġtabour":9513,"Ġtuft":9514,"heir":9515,"heth":9516,"heart":9517,"heres":9518,"heads":9519,"hearts":9520,"Ġaed":9521,"Ġaut":9522,"Ġaus":9523,"Ġache":9524,"Ġapes":9525,"Ġavail":9526,"ouched":9527,"ourest":9528,"Ġsce":9529,"Ġsout":9530,"Ġsci":9531,"Ġsip":9532,"Ġsainted":9533,"Ġsize":9534,"Ġmam":9535,"Ġmoth":9536,"Ġmol":9537,"Ġmaw":9538,"Ġmalm":9539,"Ġmatt":9540,"Ġmakest":9541,"Ġmature":9542,"Ġmusc":9543,"Ġwive":9544,"Ġwool":9545,"Ġwield":9546,"Ġwip":9547,"Ġwaded":9548,"inc":9549,"init":9550,"inent":9551,"inest":9552,"inter":9553,"inant":9554,"inish":9555,"inence":9556,"inary":9557,"inions":9558,"rection":9559,"recy":9560,"regia":9561,"hapen":9562,"Ġbal":9563,"Ġbout":9564,"Ġbower":9565,"Ġbough":9566,"Ġbull":9567,"Ġbled":9568,"Ġbiss":9569,"Ġbits":9570,"Ġbars":9571,"Ġbaked":9572,"Ġborough":9573,"Ġbias":9574,"Ġbunch":9575,"isit":9576,"isans":9577,"isheth":9578,"ora":9579,"oro":9580,"orable":9581,"orks":9582,"orged":9583,"orpor":9584,"Ġfay":9585,"Ġfel":9586,"Ġfust":9587,"Ġfert":9588,"Ġfade":9589,"Ġfours":9590,"Ġfined":9591,"Ġfume":9592,"Ġfurious":9593,"Ġfaded":9594,"Ġfishes":9595,"Ġfidd":9596,"Ġfuel":9597,"ĠIng":9598,"ĠIron":9599,"eral":9600,"erth":9601,"erry":9602,"erick":9603,"erness":9604,"erbear":9605,"ersey":9606,"erween":9607,"itle":9608,"itter":9609,"itic":9610,"itied":9611,"itud":9612,"itary":9613,"itution":9614,"ittering":9615,"onzalo":9616,"Ġdul":9617,"Ġdart":9618,"Ġdive":9619,"Ġdau":9620,"Ġdall":9621,"Ġdough":9622,"Ġdates":9623,"Ġdirt":9624,"Ġdaunt":9625,"Ġdump":9626,"Ġdally":9627,"Ġdiff":9628,"Ġdawn":9629,"Ġdaff":9630,"Ġdarts":9631,"Ġdumps":9632,"Ġcu":9633,"Ġcod":9634,"Ġcel":9635,"Ġcoy":9636,"Ġcull":9637,"Ġcable":9638,"Ġcakes":9639,"Ġcured":9640,"Ġcats":9641,"Ġcures":9642,"Ġcities":9643,"Ġcamp":9644,"Ġcipher":9645,"Ġnut":9646,"Ġnim":9647,"Ġnation":9648,"Ġnurs":9649,"Ġnuts":9650,"Ġla":9651,"Ġlure":9652,"Ġlime":9653,"Ġlag":9654,"Ġlave":9655,"Ġlatter":9656,"Ġlump":9657,"Ġlackey":9658,"Ġlitter":9659,"esnes":9660,"enious":9661,"Ġthigh":9662,"Ġthrows":9663,"Ġthimble":9664,"arallel":9665,"arbary":9666,"Ġhound":9667,"Ġhild":9668,"Ġhides":9669,"Ġhoop":9670,"Ġhunts":9671,"Ġoil":9672,"Ġtot":9673,"Ġtore":9674,"Ġtoes":9675,"Ġtokens":9676,"Ġps":9677,"Ġply":9678,"Ġpea":9679,"Ġpru":9680,"Ġpout":9681,"Ġpond":9682,"Ġpence":9683,"Ġpies":9684,"Ġpins":9685,"Ġpile":9686,"Ġpars":9687,"Ġponder":9688,"Ġpump":9689,"Ġpip":9690,"Ġpelting":9691,"Ġphra":9692,"ĠTor":9693,"ĠThi":9694,"ĠTast":9695,"ĠTick":9696,"ĠTears":9697,"ĠTaking":9698,"ĠTread":9699,"ĠTroth":9700,"ĠTIT":9701,"ĠTemper":9702,"hating":9703,"ĠAut":9704,"ĠAim":9705,"ĠAllow":9706,"ĠAlex":9707,"ĠALL":9708,"Ġhent":9709,"Ġhewn":9710,"Ġheated":9711,"Ġhearers":9712,"vex":9713,"vels":9714,"otent":9715,"otless":9716,"otche":9717,"othed":9718,"otions":9719,"otpan":9720,"stit":9721,"stal":9722,"stain":9723,"stones":9724,"staring":9725,"owing":9726,"aned":9727,"anied":9728,"anched":9729,"omy":9730,"omed":9731,"omest":9732,"ominable":9733,"Ġgas":9734,"Ġgore":9735,"Ġgest":9736,"Ġgun":9737,"Ġgale":9738,"Ġgird":9739,"Ġgiv":9740,"Ġgees":9741,"Ġgames":9742,"Ġgazed":9743,"Ġgilly":9744,"Ġgasp":9745,"Ġghast":9746,"Ġgyves":9747,"atal":9748,"attle":9749,"atisf":9750,"Ġbeck":9751,"Ġbeam":9752,"Ġbede":9753,"Ġbeards":9754,"Ġbeheaded":9755,"Ġbemo":9756,"ĠWot":9757,"ĠWood":9758,"ĠWear":9759,"ĠWond":9760,"ĠWish":9761,"ĠWise":9762,"ĠWrong":9763,"ĠWorth":9764,"ĠWrench":9765,"ĠWords":9766,"ĠWipe":9767,"sec":9768,"seed":9769,"Ġinher":9770,"Ġinde":9771,"Ġinches":9772,"Ġinvest":9773,"Ġinforced":9774,"Ġinex":9775,"Ġinhum":9776,"Ġhal":9777,"Ġhay":9778,"Ġhack":9779,"Ġhaunts":9780,"Ġhaggard":9781,"Ġhammer":9782,"cease":9783,"cember":9784,"ceiving":9785,"lead":9786,"lected":9787,"aynard":9788,"ldst":9789,"iry":9790,"irand":9791,"etry":9792,"edic":9793,"utor":9794,"utish":9795,"utiful":9796,"ĠBu":9797,"ĠBro":9798,"ĠBER":9799,"ĠBare":9800,"ĠBeen":9801,"ĠBless":9802,"ĠBrief":9803,"ĠBarbary":9804,"ĠBaynard":9805,"Ġmeas":9806,"Ġmeek":9807,"imy":9808,"imer":9809,"imon":9810,"ĠSk":9811,"ĠSn":9812,"ĠSed":9813,"ĠSith":9814,"ĠSher":9815,"ĠSea":9816,"ĠSout":9817,"ĠSure":9818,"ĠSum":9819,"ĠSister":9820,"ĠSham":9821,"ĠSorry":9822,"ĠSafe":9823,"ĠSimois":9824,"ĠSigeia":9825,"ithmet":9826,"Ġnotable":9827,"Ġnothings":9828,"ĠHour":9829,"ĠHoo":9830,"ĠHouse":9831,"ĠHover":9832,"ĠHann":9833,"ĠHacket":9834,"ĠHugh":9835,"chion":9836,"chbishop":9837,"ĠMan":9838,"ĠMam":9839,"ĠMond":9840,"ĠMort":9841,"ĠMatter":9842,"ĠMaid":9843,"ĠMortal":9844,"ĠMops":9845,"ĠMEAS":9846,"ĠMirand":9847,"Ġfork":9848,"Ġforged":9849,"Ġforges":9850,"Ġforfeits":9851,"Ġforfend":9852,"keeping":9853,"ĠCor":9854,"ĠCour":9855,"ĠCra":9856,"ĠChan":9857,"ĠCARD":9858,"ĠCrown":9859,"ĠCull":9860,"ĠCret":9861,"ĠCount":9862,"ĠCertain":9863,"ĠCoun":9864,"ĠCuts":9865,"ĠCHRI":9866,"Ġwean":9867,"Ġwealt":9868,"Ġweeks":9869,"ooing":9870,"ooch":9871,"oosing":9872,"illius":9873,"illars":9874,"Ġeaster":9875,"Ġeats":9876,"Ġepit":9877,"Ġwithholds":9878,"hers":9879,"herds":9880,"Ġitch":9881,"entation":9882,"add":9883,"adition":9884,"rid":9885,"rip":9886,"rius":9887,"ride":9888,"rivener":9889,"ĠOly":9890,"Ġstam":9891,"Ġstif":9892,"Ġstake":9893,"Ġstings":9894,"Ġstee":9895,"Ġstation":9896,"Ġstates":9897,"Ġstair":9898,"Ġstains":9899,"Ġstony":9900,"Ġstaves":9901,"Ġstumbling":9902,"Ġkersey":9903,"ĠLed":9904,"ĠLim":9905,"ĠLand":9906,"ĠLight":9907,"ĠList":9908,"ĠLearn":9909,"ĠLaid":9910,"ĠLament":9911,"ĠLiby":9912,"ĠLascivious":9913,"ĠLOV":9914,"Ġhiss":9915,"ĠFa":9916,"ĠFe":9917,"ĠFan":9918,"ĠFur":9919,"ĠFore":9920,"ĠFam":9921,"ĠFast":9922,"ĠFine":9923,"ĠFree":9924,"ĠFred":9925,"ĠGro":9926,"ĠGave":9927,"ĠGrim":9928,"ĠGrief":9929,"ĠGonzalo":9930,"Ġreel":9931,"Ġreins":9932,"Ġreek":9933,"Ġrevoke":9934,"ids":9935,"idity":9936,"ideth":9937,"idels":9938,"rav":9939,"rave":9940,"rawn":9941,"raise":9942,"rains":9943,"raham":9944,"raught":9945,"ramed":9946,"racted":9947,"ĠThee":9948,"Ġliver":9949,"Ġlibr":9950,"Ġlicence":9951,"ashing":9952,"assed":9953,"asury":9954,"ĠPen":9955,"ĠPed":9956,"ĠPur":9957,"ĠPast":9958,"ĠPity":9959,"ĠPass":9960,"ĠPier":9961,"ĠPret":9962,"ĠPoison":9963,"ĠPotpan":9964,"url":9965,"alus":9966,"alian":9967,"Ġsol":9968,"Ġsops":9969,"Ġsoever":9970,"Ġsoothing":9971,"Ġsoothe":9972,"Ġasks":9973,"Ġasunder":9974,"Ġassemble":9975,"Ġdeem":9976,"Ġdeity":9977,"Ġdeign":9978,"ĠRain":9979,"ĠRoy":9980,"ĠRec":9981,"ĠRise":9982,"ĠRage":9983,"rob":9984,"rove":9985,"roses":9986,"roying":9987,"ĠNea":9988,"ĠNort":9989,"ĠNew":9990,"ĠNeed":9991,"ĠNican":9992,"hic":9993,"hily":9994,"hips":9995,"cked":9996,"ckets":9997,"ĠYorks":9998,"Ġshaped":9999,"Ġwillow":10000,"Ġdoers":10001,"Ġdoff":10002,"eaf":10003,"Ġnost":10004,"Ġnodd":10005,"Ġnoisome":10006,"amour":10007,"amine":10008,"ĠEs":10009,"ĠEmb":10010,"ĠEthi":10011,"ĠEarth":10012,"ĠEleven":10013,"ĠEcho":10014,"ĠDi":10015,"ĠDay":10016,"ĠDone":10017,"ĠDry":10018,"ĠDig":10019,"ĠDull":10020,"ĠDaughter":10021,"ĠDuring":10022,"ĠDeny":10023,"ĠDrop":10024,"ĠDrawn":10025,"uspect":10026,"ushed":10027,"Ġsew":10028,"Ġseed":10029,"Ġsemb":10030,"Ġseats":10031,"Ġseals":10032,"Ġseeds":10033,"Ġselves":10034,"ifs":10035,"ifies":10036,"ificial":10037,"genders":10038,"Ġally":10039,"Ġallied":10040,"andon":10041,"ĠThrew":10042,"Ġsums":10043,"ĠKill":10044,"ĠKings":10045,"ĠKiss":10046,"ĠKates":10047,"ĠKilling":10048,"Ġlogs":10049,"Ġlosing":10050,"Ġlolling":10051,"Ġlogger":10052,"tern":10053,"hankfulness":10054,"Ġspies":10055,"Ġspran":10056,"Ġspray":10057,"Ġspright":10058,"Ġspawn":10059,"Ġspacious":10060,"Ġsparks":10061,"Ġsprung":10062,"ellist":10063,"thou":10064,"three":10065,"thread":10066,"iless":10067,"ilities":10068,"iliments":10069,"Ġnecks":10070,"Ġnephe":10071,"Ġknots":10072,"hod":10073,"holesome":10074,"Ġvall":10075,"Ġvail":10076,"Ġvaunt":10077,"Ġvouchsafe":10078,"Ġvouches":10079,"Ġvizard":10080,"Ġvitae":10081,"asted":10082,"Ġshy":10083,"Ġshin":10084,"Ġshining":10085,"anting":10086,"Ġupholds":10087,"quer":10088,"ques":10089,"quent":10090,"quire":10091,"arting":10092,"Ġcomfor":10093,"aths":10094,"athy":10095,"Ġmudd":10096,"Ġprone":10097,"Ġpratest":10098,"Ġprank":10099,"Ġproro":10100,"Ġprattle":10101,"Ġmanors":10102,"Ġmansion":10103,"ĠVince":10104,"ĠVAU":10105,"ĠVile":10106,"ĠVisit":10107,"onely":10108,"oneous":10109,"Ġconn":10110,"Ġconv":10111,"Ġcongea":10112,"Ġconvenient":10113,"Ġcongeal":10114,"ĠWhatever":10115,"Ġample":10116,"Ġamount":10117,"Ġampl":10118,"ics":10119,"ieving":10120,"Ġsheer":10121,"Ġsheet":10122,"Ġsheath":10123,"Ġshearers":10124,"Ġblench":10125,"Ġbloss":10126,"Ġblushes":10127,"Ġblank":10128,"Ġblanks":10129,"venged":10130,"ĠFors":10131,"ĠForce":10132,"ĠForward":10133,"ĠForsw":10134,"ĠForced":10135,"emning":10136,"ements":10137,"emaker":10138,"empore":10139,"aucas":10140,"arell":10141,"arewell":10142,"olate":10143,"olation":10144,"olution":10145,"ology":10146,"ĠHeld":10147,"ĠHeir":10148,"Ġhates":10149,"Ġthereon":10150,"Ġtherewithal":10151,"Ġcanon":10152,"Ġcancell":10153,"ondam":10154,"ateful":10155,"few":10156,"fered":10157,"Ġswan":10158,"Ġswept":10159,"Ġswarm":10160,"Ġhereof":10161,"Ġheretic":10162,"Ġloveth":10163,"Ġlovelier":10164,"Ġorb":10165,"Ġorison":10166,"Ġorators":10167,"Ġorange":10168,"Ġoratory":10169,"Ġbrood":10170,"Ġbrats":10171,"Ġbrutish":10172,"Ġbrooch":10173,"ppers":10174,"Ġusest":10175,"Ġusual":10176,"Ġusurps":10177,"allible":10178,"Ġarrog":10179,"Ġarraign":10180,"Ġarithmet":10181,"ody":10182,"odes":10183,"odils":10184,"Ġlethar":10185,"Ġletting":10186,"Ġunres":10187,"Ġunable":10188,"Ġunsw":10189,"Ġunhall":10190,"Ġunfort":10191,"Ġunking":10192,"Ġunpo":10193,"Ġunset":10194,"Ġunadvised":10195,"Ġungovern":10196,"Ġunhapp":10197,"Ġunquiet":10198,"Ġunpeople":10199,"igm":10200,"igs":10201,"igen":10202,"igate":10203,"igree":10204,"inkle":10205,"orts":10206,"ortive":10207,"ĠAsk":10208,"ĠAscend":10209,"Ġquaff":10210,"Ġquondam":10211,"elier":10212,"Ġjay":10213,"Ġjars":10214,"Ġjaunt":10215,"Ġjades":10216,"KELEY":10217,"Ġgraver":10218,"Ġgrains":10219,"Ġgravity":10220,"reation":10221,"aketh":10222,"ounding":10223,"Ġhoard":10224,"Ġhoping":10225,"Ġproves":10226,"Ġproli":10227,"Ġpropose":10228,"Ġprobation":10229,"Ġprolong":10230,"Ġprogress":10231,"Ġsaves":10232,"Ġsaving":10233,"Ġsavour":10234,"Ġsavours":10235,"Ġmadmen":10236,"Ġplight":10237,"Ġplough":10238,"Ġplots":10239,"Ġplume":10240,"Ġplagues":10241,"uming":10242,"umbly":10243,"peer":10244,"ĠJoy":10245,"ĠJew":10246,"Ġdisb":10247,"Ġdisli":10248,"Ġdispose":10249,"Ġdisfig":10250,"Ġencl":10251,"Ġenvir":10252,"Ġengenders":10253,"Ġpoets":10254,"Ġpoetry":10255,"Ġoutside":10256,"Ġfrivol":10257,"Ġhowling":10258,"pton":10259,"unction":10260,"death":10261,"decess":10262,"Ġhandled":10263,"Ġhandker":10264,"Ġwhoever":10265,"ĠWeigh":10266,"ĠWeeping":10267,"ignation":10268,"Ġmarches":10269,"Ġrar":10270,"Ġrat":10271,"Ġrite":10272,"Ġrounds":10273,"Ġrayed":10274,"Ġrhyme":10275,"ĠInc":10276,"ĠInst":10277,"ĠInter":10278,"ĠIncl":10279,"ĠIniquity":10280,"ĠInjurious":10281,"ĠInquire":10282,"Ġofficious":10283,"ists":10284,"isted":10285,"harm":10286,"wness":10287,"ĠOft":10288,"Ġheaved":10289,"Ġheaps":10290,"Ġhearken":10291,"Ġhearkens":10292,"Ġbloods":10293,"Ġabound":10294,"Ġabides":10295,"Ġabominable":10296,"Ġabandon":10297,"Ġabortive":10298,"Ġexiled":10299,"Ġexamp":10300,"Ġexcels":10301,"Ġfoem":10302,"Ġfoison":10303,"Ġearls":10304,"Ġroe":10305,"Ġrobe":10306,"Ġroots":10307,"Ġroared":10308,"ĠHowe":10309,"Ġeyed":10310,"ĠQuit":10311,"agon":10312,"agion":10313,"agab":10314,"agued":10315,"Ġdesiring":10316,"Ġdeserving":10317,"Ġdesperation":10318,"Ġgentlewomen":10319,"ĠUs":10320,"Ġriot":10321,"Ġrice":10322,"Ġrift":10323,"Ġrider":10324,"Ġricher":10325,"Ġribs":10326,"Ġrival":10327,"Ġrivals":10328,"avel":10329,"Ġarts":10330,"Ġartificial":10331,"Ġwarp":10332,"Ġhonourably":10333,"Ġfling":10334,"Ġflout":10335,"Ġflap":10336,"Ġflung":10337,"ĠMarquis":10338,"Ġslower":10339,"Ġslumber":10340,"Ġslug":10341,"Ġslavish":10342,"ĠWhereby":10343,"urned":10344,"urnish":10345,"Ġtwin":10346,"Ġtwos":10347,"Ġtwigs":10348,"Ġhastily":10349,"ĠWhoever":10350,"Ġbetake":10351,"Ġcouch":10352,"Ġcouched":10353,"ĠBehind":10354,"ĠBegg":10355,"berate":10356,"berries":10357,"Ġbreeder":10358,"Ġbreech":10359,"Ġafire":10360,"Ġafresh":10361,"apert":10362,"ighing":10363,"Ġmenace":10364,"astery":10365,"ĠItalian":10366,"Ġpartisans":10367,"Ġanything":10368,"Ġram":10369,"Ġrav":10370,"Ġrapt":10371,"Ġraged":10372,"Ġrags":10373,"Ġraising":10374,"Ġrazed":10375,"STOP":10376,"Ġadds":10377,"Ġadmon":10378,"reech":10379,"Ġcommune":10380,"Ġpredom":10381,"Ġprecept":10382,"Ġprecip":10383,"Ġprenz":10384,"Ġpredecess":10385,"Ġstanders":10386,"Ġstandards":10387,"Ġpraying":10388,"Ġprayed":10389,"Ġclout":10390,"Ġcloth":10391,"Ġclime":10392,"Ġcloy":10393,"Ġclos":10394,"Ġclient":10395,"Ġclip":10396,"Ġclang":10397,"Ġclutch":10398,"Ġclubs":10399,"Ġclusters":10400,"Ġsweeting":10401,"Ġperch":10402,"Ġperfid":10403,"Ġperceives":10404,"Ġpertinent":10405,"oused":10406,"ĠTherein":10407,"ĠThereon":10408,"ĠThereof":10409,"Ġheadlong":10410,"awd":10411,"Ġmeanest":10412,"Ġpresag":10413,"Ġpreservation":10414,"Ġscale":10415,"Ġscared":10416,"Ġscathe":10417,"Ġscurvy":10418,"ĠAnointed":10419,"ainties":10420,"gery":10421,"liest":10422,"ĠLetters":10423,"Ġmoons":10424,"Ġcontain":10425,"Ġcontend":10426,"Ġcontains":10427,"Ġcontempl":10428,"Ġcontracted":10429,"Ġcontagion":10430,"Ġapple":10431,"Ġappeach":10432,"Ġremnant":10433,"perly":10434,"abs":10435,"aby":10436,"abouts":10437,"Ġbegn":10438,"Ġbegs":10439,"Ġgraceful":10440,"Ġgraceless":10441,"Ġuntr":10442,"Ġuntaught":10443,"Ġuntainted":10444,"Ġunthankfulness":10445,"ressing":10446,"Ġeyesight":10447,"Ġmaim":10448,"landers":10449,"range":10450,"Ġreplen":10451,"Ġreproach":10452,"Ġreprehend":10453,"INAL":10454,"locks":10455,"sweet":10456,"swoln":10457,"ĠShed":10458,"Ġchildhood":10459,"Ġwombs":10460,"Ġconsents":10461,"Ġconspire":10462,"ledged":10463,"Ġrung":10464,"Ġruff":10465,"Ġrubs":10466,"Ġrubb":10467,"Ġresting":10468,"Ġrestless":10469,"Ġpeep":10470,"Ġleather":10471,"Ġleash":10472,"Ġentail":10473,"Ġharp":10474,"uckle":10475,"ercharged":10476,"Ġsetter":10477,"Ġsetting":10478,"chest":10479,"chess":10480,"orship":10481,"Ġbetters":10482,"ĠStabb":10483,"rants":10484,"Ġwitless":10485,"Ġwitty":10486,"Ġtrident":10487,"Ġtrivial":10488,"meant":10489,"ĠProv":10490,"ĠProvo":10491,"ĠProcure":10492,"ĠProvided":10493,"ĠProportion":10494,"ossed":10495,"Ġsleeve":10496,"Ġsleeves":10497,"Ġbestir":10498,"Ġbestrew":10499,"Ġrescued":10500,"Ġaccent":10501,"Ġaccents":10502,"Ġaccustom":10503,"Ġgripe":10504,"Ġcompet":10505,"ĠNote":10506,"ĠNotice":10507,"Ġendless":10508,"Ġkindle":10509,"Ġkindest":10510,"Ġtwofold":10511,"onted":10512,"Ġprig":10513,"uding":10514,"Ġpurg":10515,"Ġpurity":10516,"Ġpurbl":10517,"Ġchaos":10518,"Ġsubs":10519,"Ġsubmit":10520,"Ġcounts":10521,"cloth":10522,"Ġguide":10523,"Ġguile":10524,"Ġguides":10525,"Ġsmear":10526,"Ġsmock":10527,"Ġtrack":10528,"Ġtrained":10529,"Ġtravel":10530,"Ġtrample":10531,"Ġcog":10532,"Ġcoin":10533,"Ġcoil":10534,"Ġcoven":10535,"Ġcovet":10536,"Ġcocke":10537,"Ġcoxcom":10538,"Ġtreads":10539,"Ġtreasures":10540,"Ġtreasury":10541,"Ġfinding":10542,"Ġdregs":10543,"Ġbrake":10544,"Ġbraving":10545,"raybe":10546,"Ġhighly":10547,"Ġhusbandry":10548,"Ġrighteous":10549,"Ġchants":10550,"Ġchannel":10551,"twenty":10552,"Ġbanns":10553,"aching":10554,"Ġcheat":10555,"Ġcheques":10556,"Ġcharter":10557,"ĠDoing":10558,"ĠDogs":10559,"Ġshowing":10560,"Ġconfine":10561,"Ġconfli":10562,"Ġconfessed":10563,"Ġconfounds":10564,"Ġconfident":10565,"Ġbrick":10566,"Ġbriers":10567,"Ġbridle":10568,"fortable":10569,"Ġimpute":10570,"Ġimpiety":10571,"Ġimplore":10572,"Ġservitor":10573,"Ġmista":10574,"Ġlawless":10575,"Ġlawyers":10576,"Ġglance":10577,"Ġglittering":10578,"Ġeverything":10579,"Ġdoubly":10580,"Ġpassages":10581,"Ġpassado":10582,"Ġlighted":10583,"Ġlightens":10584,"Ġbeseeming":10585,"Ġnativity":10586,"Ġthrongs":10587,"ĠOurselves":10588,"Ġjustices":10589,"Ġjustified":10590,"Ġpardoning":10591,"Ġunderstood":10592,"Ġdevout":10593,"Ġdevised":10594,"Ġdevoted":10595,"Ġmisled":10596,"Ġmisdeed":10597,"Ġmispl":10598,"Ġmisbe":10599,"Ġmisadventure":10600,"Ġmisdoubt":10601,"Ġlasts":10602,"Ġlastly":10603,"ensible":10604,"Ġstately":10605,"Ġcareer":10606,"Ġcarefully":10607,"Ġmeets":10608,"Ġkills":10609,"Ġkilling":10610,"Ġhelped":10611,"Ġfalter":10612,"Ġfalchion":10613,"Ġlessen":10614,"Ġlessons":10615,"ĠEngage":10616,"Ġanswering":10617,"Ġfollowed":10618,"Ġfarmer":10619,"Ġfoolery":10620,"Ġchin":10621,"Ġchoosing":10622,"Ġchurl":10623,"Ġhitherward":10624,"Ġpatrim":10625,"irts":10626,"ĠShort":10627,"Ġshameful":10628,"Ġsunset":10629,"days":10630,"ĠUnf":10631,"ĠUnshe":10632,"ĠUnhappy":10633,"ĠUnfold":10634,"Ġcourtship":10635,"ĠAlmost":10636,"ĠAlbion":10637,"Ġstriving":10638,"Ġstrikes":10639,"Ġstrifes":10640,"Ġstreams":10641,"Ġworthless":10642,"ildly":10643,"Ġhumours":10644,"Ġhumorous":10645,"alties":10646,"Ġoverta":10647,"Ġoverboard":10648,"Ġbelie":10649,"Ġivy":10650,"Ġsounding":10651,"Ġbug":10652,"Ġbubble":10653,"Ġdrain":10654,"Ġinstinct":10655,"Ġinstigation":10656,"ĠHerself":10657,"ĠHerbert":10658,"Ġthankings":10659,"Ġproveth":10660,"Ġplayers":10661,"Ġplayfellow":10662,"Ġadvantag":10663,"Ġwelcom":10664,"Ġretail":10665,"Ġvoid":10666,"Ġboat":10667,"Ġboil":10668,"Ġboatswain":10669,"Ġevening":10670,"Ġmerciless":10671,"Ġcurb":10672,"Ġcurds":10673,"Ġcursing":10674,"Ġcurrish":10675,"Ġcurfew":10676,"Ġdoubts":10677,"Ġwantons":10678,"Ġgrin":10679,"Ġgrateful":10680,"Ġhangmen":10681,"Ġrevenues":10682,"Ġassay":10683,"Ġassign":10684,"pecting":10685,"Ġtruths":10686,"Ġdiscom":10687,"Ġdiscours":10688,"Ġdiscern":10689,"Ġcracks":10690,"Ġstrains":10691,"Ġpromises":10692,"Ġpromotions":10693,"Ġstrangers":10694,"Ġsecrecy":10695,"Ġproudly":10696,"Ġbeaver":10697,"ĠSugg":10698,"ĠSuccess":10699,"Ġdepends":10700,"Ġdeposing":10701,"Ġdepending":10702,"hampton":10703,"Ġfreeze":10704,"ĠPOMPHEY":10705,"ĠWash":10706,"Ġawaking":10707,"Ġawaken":10708,"Ġawaked":10709,"Ġmerits":10710,"Ġmerited":10711,"Ġdenies":10712,"Ġdenier":10713,"Ġhorseman":10714,"ĠLooks":10715,"ĠLooking":10716,"Ġdrugs":10717,"Ġdrudge":10718,"ĠComm":10719,"ĠCompare":10720,"Ġsupposes":10721,"eys":10722,"Ġwinning":10723,"Ġcarver":10724,"Ġcarved":10725,"Ġcarters":10726,"Ġcarriage":10727,"Ġcarbon":10728,"Ġcarcass":10729,"Ġspoiled":10730,"Ġmonastery":10731,"ĠHaste":10732,"Ġdefiance":10733,"Ġdefaced":10734,"Ġunclean":10735,"Ġmettle":10736,"Ġmethod":10737,"Ġsinful":10738,"Ġsincerity":10739,"ĠSpl":10740,"ĠSpur":10741,"ĠSpare":10742,"ĠSpread":10743,"Ġsurety":10744,"Ġsadd":10745,"remacy":10746,"Ġgeneration":10747,"Ġgenerally":10748,"ĠLucy":10749,"ringed":10750,"Ġpurposed":10751,"Ġthroughout":10752,"black":10753,"ictment":10754,"Ġchoked":10755,"Ġrecreation":10756,"Ġpersonally":10757,"ĠJulietta":10758,"azz":10759,"mercies":10760,"Ġplucking":10761,"Ġdispute":10762,"Ġlosses":10763,"Ġjolly":10764,"Ġflying":10765,"Ġcrystal":10766,"Ġtrusted":10767,"Ġentreats":10768,"Ġinstructed":10769,"gued":10770,"shot":10771,"Ġorders":10772,"Ġordered":10773,"Ġbolder":10774,"Ġfoundation":10775,"Ġnearness":10776,"Ġfasts":10777,"Ġfaster":10778,"Ġvisits":10779,"Ġremembering":10780,"Ġwearisome":10781,"Ġtouching":10782,"Ġwooer":10783,"Ġfitly":10784,"Ġfitness":10785,"Ġhugg":10786,"Ġopenly":10787,"Ġgrants":10788,"ĠSeeing":10789,"Ġrunn":10790,"Ġrunning":10791,"Ġrunagate":10792,"Ġfurred":10793,"Ġfurthe":10794,"Ġfurlongs":10795,"Ġincaged":10796,"Ġincorpor":10797,"Ġinfidels":10798,"Ġinfallible":10799,"Ġissuing":10800,"Ġdelivers":10801,"Ġdeliberate":10802,"Ġquarters":10803,"plain":10804,"plus":10805,"plight":10806,"vocate":10807,"Ġfeels":10808,"Ġparks":10809,"Ġparley":10810,"Ġparcels":10811,"Ġparallel":10812,"Ġparagon":10813,"ĠBecame":10814,"Ġreadiest":10815,"Ġdelicious":10816,"Ġspeeds":10817,"ĠGloucest":10818,"Ġforemost":10819,"Ġforego":10820,"Ġforewarn":10821,"Ġfields":10822,"Ġposture":10823,"Ġpostern":10824,"Ġbeholders":10825,"ĠPronounce":10826,"Ġjudged":10827,"Ġmocks":10828,"Ġmocked":10829,"Ġbounds":10830,"Ġboundless":10831,"Ġdamask":10832,"ĠBootless":10833,"Ġworking":10834,"Ġhonestly":10835,"Ġtribe":10836,"Ġtribes":10837,"pared":10838,"Ġvein":10839,"Ġtenor":10840,"Ġwhipping":10841,"Ġbitterest":10842,"ĠCapel":10843,"Ġharmful":10844,"Ġguiltiness":10845,"Ġattendance":10846,"Ġattendants":10847,"Ġague":10848,"Ġsinging":10849,"Ġsingled":10850,"Ġwatching":10851,"Ġcoral":10852,"Ġcorpse":10853,"Ġcormor":10854,"Ġdistance":10855,"Ġdistaff":10856,"Ġdistilled":10857,"Ġstrengths":10858,"Ġacted":10859,"Ġstirr":10860,"Ġaffable":10861,"Ġaffiance":10862,"Ġbravely":10863,"Ġtype":10864,"Ġsignified":10865,"Ġwaist":10866,"Ġwaving":10867,"Ġwaft":10868,"Ġpieced":10869,"Ġgarter":10870,"Ġgarish":10871,"Ġgarment":10872,"Ġextir":10873,"Ġextol":10874,"Ġextempore":10875,"ĠUntimely":10876,"Ġcloset":10877,"beit":10878,"beat":10879,"vouring":10880,"Ġskies":10881,"Ġskull":10882,"Ġskins":10883,"etchy":10884,"ĠChide":10885,"Ġweaker":10886,"Ġjests":10887,"Ġplainness":10888,"Ġrichly":10889,"Ġacre":10890,"Ġwiser":10891,"Ġcasting":10892,"Ġforgetfulness":10893,"Ġregent":10894,"Ġvenuto":10895,"Ġtape":10896,"Ġwedlock":10897,"Ġdugs":10898,"Ġduellist":10899,"Ġdirected":10900,"Ġcrotche":10901,"Ġreduce":10902,"Ġredoubted":10903,"ĠRequ":10904,"ĠReward":10905,"ĠReason":10906,"ĠReceive":10907,"ĠRebell":10908,"Ġencamp":10909,"Ġwrites":10910,"Ġmoveable":10911,"Ġdangerously":10912,"Ġbattlements":10913,"Ġladder":10914,"Ġpaying":10915,"Ġpayment":10916,"Ġgroats":10917,"Ġblacker":10918,"Ġtroubles":10919,"Ġquarrels":10920,"changea":10921,"Ġsighing":10922,"Ġmalady":10923,"Ġmalcontent":10924,"Ġmalapert":10925,"Ġbarber":10926,"Ġbarne":10927,"Ġdrove":10928,"Ġthrives":10929,"Ġthriving":10930,"arism":10931,"ĠAbate":10932,"ĠAbraham":10933,"ĠArgier":10934,"ĠArchbishop":10935,"Ġundes":10936,"Ġundisc":10937,"Ġvictor":10938,"Ġvictors":10939,"Ġprivily":10940,"Ġmortals":10941,"Ġmortality":10942,"Ġbleared":10943,"Ġpenet":10944,"Ġpenalty":10945,"Ġinterr":10946,"Ġinterior":10947,"Ġinterpretation":10948,"Ġinterchangea":10949,"Ġevidence":10950,"ĠKeeps":10951,"Ġflattery":10952,"Ġcomplots":10953,"Ġcompliment":10954,"Ġdreaded":10955,"Ġdenying":10956,"iply":10957,"ipodes":10958,"ouncing":10959,"Ġbroil":10960,"Ġbroach":10961,"Ġbabies":10962,"Ġfraught":10963,"Ġfrailty":10964,"Ġhurry":10965,"Ġhurts":10966,"ĠDead":10967,"ĠDeuc":10968,"ĠDecember":10969,"Ġprotection":10970,"Ġappearing":10971,"Ġdishonest":10972,"Ġdishonours":10973,"urally":10974,"Ġcrosses":10975,"Ġcrossing":10976,"Ġcowards":10977,"Ġlimed":10978,"Ġopport":10979,"Ġoppose":10980,"Ġoppress":10981,"righted":10982,"Ġangle":10983,"Ġviolation":10984,"Ġkingdoms":10985,"Ġapprove":10986,"Ġleading":10987,"Ġlamented":10988,"Ġsuccesses":10989,"Ġsuccessful":10990,"URE":10991,"Ġcleave":10992,"Ġlabours":10993,"Ġowl":10994,"Ġowed":10995,"Ġowest":10996,"Ġpities":10997,"Ġgalled":10998,"Ġgallows":10999,"Ġgallops":11000,"Ġinsur":11001,"Ġinside":11002,"Ġinsatiate":11003,"Ġinsensible":11004,"ĠBliss":11005,"Ġforwardness":11006,"ĠThinkest":11007,"Ġprincip":11008,"Ġunwise":11009,"Ġunwieldy":11010,"Ġunwholesome":11011,"Ġunwonted":11012,"Ġscarf":11013,"Ġscarr":11014,"acre":11015,"aculate":11016,"Ġsurfeits":11017,"Ġsurcease":11018,"Ġsurplus":11019,"Ġdestined":11020,"Ġdestroying":11021,"ĠConvenient":11022,"ĠConceiving":11023,"Ġdeparting":11024,"Ġdeparted":11025,"Ġpossessions":11026,"Ġutters":11027,"Ġuttered":11028,"Ġbasely":11029,"Ġbirthright":11030,"Ġfilling":11031,"ĠAdo":11032,"ĠAdrian":11033,"ĠHolding":11034,"Ġformal":11035,"Ġformally":11036,"Ġeasier":11037,"ĠExceed":11038,"ĠExamine":11039,"Ġfavourites":11040,"Ġproceeds":11041,"Ġperformed":11042,"Ġshipp":11043,"Ġmilder":11044,"Ġwalking":11045,"Ġwilderness":11046,"Ġcape":11047,"Ġcavil":11048,"Ġforswore":11049,"Ġshades":11050,"Ġquietly":11051,"Ġquietness":11052,"Ġleisurely":11053,"ĠStays":11054,"Ġapish":11055,"Ġapology":11056,"Ġshoot":11057,"Ġmedd":11058,"Ġmedlar":11059,"reading":11060,"Ġfamed":11061,"Ġlisten":11062,"ĠTwelve":11063,"Ġhapless":11064,"ĠBelow":11065,"Ġnobody":11066,"Ġblowing":11067,"Ġuncrown":11068,"Ġunconstant":11069,"Ġunknit":11070,"Ġcontinency":11071,"Ġcontinuance":11072,"Ġseconds":11073,"Ġforbids":11074,"Ġencounters":11075,"Ġsorted":11076,"Ġmutual":11077,"Ġmutually":11078,"Ġmutton":11079,"ĠIntends":11080,"ĠIntended":11081,"Ġcrupper":11082,"Ġlances":11083,"Ġpettic":11084,"Ġstories":11085,"Ġstealth":11086,"Ġrefer":11087,"Ġrefresh":11088,"Ġreflect":11089,"Ġproclaimed":11090,"Ġtemporiz":11091,"Ġtenth":11092,"Ġfinely":11093,"Ġdrowned":11094,"Ġlowest":11095,"Ġbended":11096,"Ġindu":11097,"Ġindust":11098,"Ġinduced":11099,"Ġindignation":11100,"Ġindictment":11101,"ĠScorn":11102,"ĠScurvy":11103,"ĠScroop":11104,"ĠHeart":11105,"ĠPerform":11106,"ĠEns":11107,"ĠEnjoy":11108,"ĠEnforced":11109,"Ġconquered":11110,"Ġexcused":11111,"Ġexcuses":11112,"Ġpursuing":11113,"Ġpursuivant":11114,"Ġdoubled":11115,"Ġdoublets":11116,"Ġdespairing":11117,"Ġwisdoms":11118,"Ġmounted":11119,"Ġmountains":11120,"Ġfeign":11121,"Ġfeigned":11122,"Ġdanced":11123,"Ġcorns":11124,"Ġcaptives":11125,"Ġpunk":11126,"Ġpuny":11127,"Ġpunished":11128,"angled":11129,"Ġhairs":11130,"Ġstudying":11131,"ĠFriend":11132,"ĠDispose":11133,"ĠDismiss":11134,"Ġmannerly":11135,"Ġunsk":11136,"Ġunsway":11137,"Ġunspeak":11138,"Ġunsuspect":11139,"Ġplanted":11140,"Ġenjoying":11141,"Ġrange":11142,"Ġranks":11143,"Ġabroach":11144,"Ġfollower":11145,"Ġcontrar":11146,"Ġstrucken":11147,"denly":11148,"Ġteaching":11149,"Ġsimpl":11150,"Ġcredent":11151,"Ġcredulous":11152,"Ġgentleness":11153,"ĠFlower":11154,"ĠFlatter":11155,"ĠFlav":11156,"ĠNext":11157,"ĠNegle":11158,"Ġprovince":11159,"Ġprovision":11160,"Ġaccounted":11161,"Ġpriests":11162,"Ġguards":11163,"Ġextremities":11164,"Ġcruelty":11165,"Ġwailing":11166,"Ġbaits":11167,"Ġbaited":11168,"Ġdwellest":11169,"Ġcustomers":11170,"Ġpacking":11171,"Ġpackthread":11172,"Ġgavest":11173,"Ġeased":11174,"Ġbutcheries":11175,"Ġenvying":11176,"Ġridges":11177,"Ġadders":11178,"Ġaddition":11179,"Ġimages":11180,"Ġimagined":11181,"Ġsubstantial":11182,"Ġfellowship":11183,"Ġbenefactors":11184,"Ġlaughing":11185,"Ġverily":11186,"Ġveriest":11187,"Ġverified":11188,"Ġverdict":11189,"Ġwreak":11190,"Ġwreaths":11191,"Ġwagging":11192,"Ġfirmament":11193,"Ġdullest":11194,"Ġholes":11195,"velling":11196,"Ġbefell":11197,"Ġincline":11198,"ĠBarnet":11199,"ĠHenceforth":11200,"ĠHenceforward":11201,"Ġformerly":11202,"Ġrelent":11203,"Ġdealings":11204,"ĠDesire":11205,"ĠDesires":11206,"ĠDeserved":11207,"ĠDeserve":11208,"ĠDeserves":11209,"Ġsportful":11210,"Ġconveyance":11211,"Ġarrive":11212,"Ġunbu":11213,"Ġunbruised":11214,"Ġunpitied":11215,"Ġunparallel":11216,"Ġrooted":11217,"Ġcountenances":11218,"Ġsmoke":11219,"Ġcovering":11220,"Ġacquit":11221,"Ġschoolboy":11222,"shell":11223,"sheet":11224,"Ġfingering":11225,"lloa":11226,"ĠTutor":11227,"Ġgrossly":11228,"ĠSicils":11229,"ĠSicinius":11230,"Ġstables":11231,"Ġnecessaries":11232,"Ġdisgracious":11233,"Ġimports":11234,"Ġimportance":11235,"Ġimportuned":11236,"Ġundertaking":11237,"Ġcircled":11238,"olycus":11239,"spring":11240,"Ġesp":11241,"Ġeduc":11242,"Ġdrive":11243,"Ġcreep":11244,"Ġlargess":11245,"ĠTurns":11246,"Ġinformation":11247,"Ġelected":11248,"Ġeagles":11249,"Ġdecreed":11250,"Ġsharper":11251,"Ġallowing":11252,"Ġallowed":11253,"Ġknights":11254,"Ġshrill":11255,"Ġshrieks":11256,"Ġsailor":11257,"Ġrobbed":11258,"Ġrobbery":11259,"Ġrocky":11260,"Ġcommendable":11261,"Ġrudely":11262,"Ġassisted":11263,"Ġconduit":11264,"Ġconducted":11265,"Ġprofesses":11266,"Ġdelightful":11267,"Ġlanguish":11268,"active":11269,"Ġdetain":11270,"Ġdetect":11271,"Ġdurance":11272,"Ġnumbering":11273,"Ġhidden":11274,"Ġpinched":11275,"Ġinfectious":11276,"ĠShake":11277,"riously":11278,"Ġstarved":11279,"Ġstockings":11280,"ashion":11281,"ĠPrefix":11282,"Ġdews":11283,"ĠResign":11284,"ĠResolved":11285,"ĠResolve":11286,"ĠKnowing":11287,"Ġambling":11288,"Ġexcellence":11289,"Ġchiefly":11290,"Ġdispositions":11291,"Ġprotectors":11292,"Ġpublish":11293,"ubbering":11294,"Ġerr":11295,"Ġirks":11296,"Ġtortures":11297,"Ġtortoise":11298,"Ġmurderers":11299,"Ġcambric":11300,"Ġcensures":11301,"Ġtopmast":11302,"Ġequally":11303,"Ġstored":11304,"Ġsupremacy":11305,"running":11306,"Ġshuts":11307,"Ġconjur":11308,"Ġconjured":11309,"Ġsways":11310,"Ġbrooks":11311,"Ġdisdains":11312,"Ġaffects":11313,"Ġaffecting":11314,"Ġrashly":11315,"Ġrashness":11316,"Ġadmire":11317,"Ġadmits":11318,"Ġadmired":11319,"Ġadmiring":11320,"Ġtransform":11321,"Ġtransgression":11322,"Ġaccusers":11323,"Ġchairs":11324,"Ġacceptance":11325,"Ġsolemnly":11326,"Ġconquerors":11327,"Ġspecially":11328,"dyed":11329,"Ġtutors":11330,"Ġwoodcock":11331,"Ġbottle":11332,"Ġbottled":11333,"Ġbuds":11334,"Ġfleece":11335,"Ġcupbearer":11336,"Ġhunting":11337,"Ġpipe":11338,"Ġpurest":11339,"Ġmended":11340,"Ġweighing":11341,"queath":11342,"Ġcombine":11343,"Ġcombined":11344,"olerable":11345,"Ġswallowed":11346,"Ġargues":11347,"Ġdissolute":11348,"Ġdissolved":11349,"Ġdissentious":11350,"Ġdissolve":11351,"Ġdissension":11352,"Ġdissolution":11353,"Ġexpected":11354,"Ġadopted":11355,"Ġclog":11356,"Ġcloven":11357,"Ġcloister":11358,"Ġwhores":11359,"Ġcourageous":11360,"Ġgroaning":11361,"Ġcomplaining":11362,"ĠAEdiles":11363,"valued":11364,"Ġtestify":11365,"Ġmillion":11366,"Ġmillstones":11367,"Ġmagn":11368,"Ġhostile":11369,"Ġpolitic":11370,"Ġgrudge":11371,"Ġgrumbling":11372,"Ġmeantime":11373,"ĠLeicester":11374,"ĠLonger":11375,"Ġrepeat":11376,"Ġshuns":11377,"Ġconcern":11378,"Ġungracious":11379,"Ġungrateful":11380,"Ġqualified":11381,"ĠJacks":11382,"Ġadversary":11383,"Ġimmod":11384,"Ġintelligen":11385,"Ġpurchased":11386,"Ġcockle":11387,"Ġcockatri":11388,"Ġimpossib":11389,"Ġmaidenheads":11390,"Ġincreaseth":11391,"Ġopposers":11392,"Ġearnestness":11393,"GHAN":11394,"flies":11395,"ucement":11396,"Ġingratitude":11397,"Ġingenious":11398,"Ġsquare":11399,"Ġsquire":11400,"Ġsquared":11401,"Ġsouthward":11402,"Ġfigured":11403,"Ġfurnished":11404,"Ġdigg":11405,"Ġchattering":11406,"Ġparentage":11407,"Ġmelting":11408,"ĠLaugh":11409,"Ġrevolted":11410,"Ġwillingness":11411,"Ġswells":11412,"Ġprovoke":11413,"Ġensign":11414,"Ġensuing":11415,"ĠStrive":11416,"Ġbrawls":11417,"Ġbuilds":11418,"Ġbuildeth":11419,"ĠSupposing":11420,"ĠPlays":11421,"Ġrecomfort":11422,"Ġrecorded":11423,"Ġafflicted":11424,"Ġgarlands":11425,"Ġforbearance":11426,"Ġfamously":11427,"ĠConspirators":11428,"Thou":11429,"Thus":11430,"falling":11431,"ibal":11432,"moreland":11433,"proud":11434,"server":11435,"Ġaptly":11436,"Ġsalve":11437,"Ġsalutation":11438,"Ġmiracle":11439,"Ġmultitud":11440,"Ġmultiply":11441,"Ġfunctions":11442,"Ġfuneral":11443,"Ġdifferent":11444,"Ġcaterp":11445,"Ġhorns":11446,"Ġpotent":11447,"Ġpotency":11448,"ĠAccount":11449,"Ġinquired":11450,"ĠBenedic":11451,"ĠHolla":11452,"Ġforsaken":11453,"rifty":11454,"Ġstinging":11455,"Ġstoutness":11456,"Ġreceiving":11457,"Ġrejoicing":11458,"ĠDraws":11459,"Ġunex":11460,"Ġuneasy":11461,"Ġunstain":11462,"Ġunstanched":11463,"Ġwrinkle":11464,"Ġwrinkles":11465,"Ġrusty":11466,"Ġpricking":11467,"Ġcharacters":11468,"Ġsmells":11469,"Ġbracelet":11470,"Ġsecurely":11471,"Ġagreeing":11472,"Ġcorrect":11473,"Ġprettily":11474,"Ġshields":11475,"Ġsubstitutes":11476,"bodied":11477,"comfortable":11478,"gnable":11479,"longeth":11480,"monger":11481,"maids":11482,"Ġtails":11483,"Ġtailors":11484,"Ġwidower":11485,"Ġwestward":11486,"Ġbuckler":11487,"Ġpedigree":11488,"ĠSometimes":11489,"Ġsteer":11490,"Ġsticks":11491,"Ġdeclined":11492,"Ġdeclines":11493,"Ġdeclining":11494,"Ġshamest":11495,"Ġshamef":11496,"Ġsucceeding":11497,"Ġsucceeders":11498,"Ġfactor":11499,"Ġfawns":11500,"Ġneglected":11501,"Ġvariable":11502,"Ġvolumes":11503,"ĠVenus":11504,"Ġengine":11505,"ĠSoftly":11506,"Ġscandalous":11507,"Ġcarelessly":11508,"Ġcurtains":11509,"Ġgratify":11510,"Ġgratulate":11511,"Ġcrafts":11512,"Ġsufficiency":11513,"Ġestimate":11514,"Ġprophetess":11515,"Ġconcealment":11516,"apparell":11517,"butt":11518,"shaped":11519,"Ġeternity":11520,"Ġtouches":11521,"Ġtrodden":11522,"Ġtigers":11523,"Ġmethoughts":11524,"Ġfixed":11525,"ĠImmediate":11526,"Ġdateless":11527,"Ġnettles":11528,"Ġnicely":11529,"Ġlucky":11530,"Ġluckless":11531,"Ġpageant":11532,"ĠWrath":11533,"celsa":11534,"ĠSitting":11535,"Ġstomachs":11536,"ĠGreek":11537,"ĠPrick":11538,"ĠPriami":11539,"Ġdeceiving":11540,"ĠDelay":11541,"ĠDeliver":11542,"Ġornament":11543,"Ġarrested":11544,"Ġunfelt":11545,"Ġwormwood":11546,"Ġbegetting":11547,"Ġrestrained":11548,"Ġcollected":11549,"Ġcramps":11550,"Ġstrawberries":11551,"Ġmonarchy":11552,"Ġsacrificed":11553,"Ġrankle":11554,"Ġcoverture":11555,"Ġapprehends":11556,"Ġmoralize":11557,"footed":11558,"winged":11559,"Ġtackle":11560,"Ġaudience":11561,"Ġaudible":11562,"Ġsedition":11563,"Ġsedges":11564,"Ġsessions":11565,"Ġmourner":11566,"Ġmoulded":11567,"Ġbruising":11568,"Ġbolt":11569,"Ġbolted":11570,"Ġfinest":11571,"Ġfinish":11572,"Ġfeverous":11573,"Ġlouring":11574,"Ġpillow":11575,"Ġpictures":11576,"Ġpalmers":11577,"ĠAdding":11578,"Ġgapes":11579,"Ġbells":11580,"Ġinvite":11581,"ĠHonour":11582,"ĠGramercies":11583,"Ġdemi":11584,"Ġdemesnes":11585,"ĠNamely":11586,"ĠEmperor":11587,"Ġanchors":11588,"Ġspotless":11589,"Ġshrug":11590,"Ġshelves":11591,"Ġgossip":11592,"Ġhoarse":11593,"Ġslippery":11594,"Ġpreferment":11595,"Ġtrimm":11596,"perienced":11597,"Ġlectures":11598,"Ġcompounded":11599,"Ġtraveller":11600,"Ġcopy":11601,"Ġcopest":11602,"Ġmiscarried":11603,"Ġobsequious":11604,"Ġattainder":11605,"Ġprompts":11606,"Ġlearnedly":11607,"Ġdivorced":11608,"ĠWelshman":11609,"Ġcrooked":11610,"Ġinsolent":11611,"ĠDespite":11612,"ĠDespised":11613,"Ġtestimon":11614,"Ġneglecting":11615,"ĠFalsely":11616,"Ġheralds":11617,"avoury":11618,"tino":11619,"wearied":11620,"Ġmasks":11621,"Ġfrequent":11622,"Ġfancies":11623,"Ġfountain":11624,"Ġfulfil":11625,"Ġfulfilled":11626,"erpast":11627,"Ġdoting":11628,"Ġdotard":11629,"Ġcushions":11630,"Ġlingering":11631,"Ġyesterday":11632,"Ġthwack":11633,"Ġpanting":11634,"ĠAccept":11635,"ĠAffliction":11636,"Ġgusts":11637,"ĠWestmoreland":11638,"ĠBestride":11639,"ĠBoldly":11640,"ĠCourageous":11641,"Ġstaggers":11642,"ĠFellows":11643,"Ġresembles":11644,"Ġrevived":11645,"ĠRelent":11646,"ĠDivine":11647,"Ġvials":11648,"Ġunlikely":11649,"Ġalarum":11650,"Ġalarums":11651,"Ġexceeds":11652,"Ġdescant":11653,"Ġdescried":11654,"Ġclerk":11655,"Ġperdition":11656,"Ġeverlastingly":11657,"Ġpeerless":11658,"ĠProspero":11659,"ĠProsperity":11660,"Ġbestrid":11661,"Ġbestride":11662,"Ġaccompanied":11663,"Ġchampions":11664,"Ġbrands":11665,"Ġconfederates":11666,"Ġmischiefs":11667,"Ġpatroness":11668,"Ġobserve":11669,"Ġcrabbed":11670,"therea":11671,"Ġdistraction":11672,"Ġdistraught":11673,"Ġcrimson":11674,"Ġembassies":11675,"Ġembassage":11676,"Ġinterrupted":11677,"Ġinsinuating":11678,"Ġunwillingness":11679,"Ġunlucky":11680,"Ġmagistrates":11681,"Ġstewardship":11682,"Ġsurprise":11683,"Stay":11684,"judged":11685,"missive":11686,"phin":11687,"Ġireful":11688,"Ġtumbled":11689,"Ġbountiful":11690,"Ġbounteous":11691,"Ġfetter":11692,"Ġdominions":11693,"Ġdedicate":11694,"Ġdieted":11695,"Ġhypo":11696,"Ġgazing":11697,"ĠCytherea":11698,"ĠGolden":11699,"Ġrenew":11700,"Ġrenounce":11701,"Ġliquor":11702,"Ġliquid":11703,"ĠPresent":11704,"Ġdefects":11705,"ĠRoger":11706,"ĠRobert":11707,"Ġdoctors":11708,"Ġdoctrine":11709,"ĠEndured":11710,"Ġsequel":11711,"Ġsuggested":11712,"Ġanswers":11713,"Ġanswered":11714,"thwart":11715,"thwack":11716,"Ġnegligence":11717,"Ġnegligent":11718,"Ġviand":11719,"Ġviper":11720,"Ġmuffle":11721,"Ġmuffled":11722,"Ġamendment":11723,"Ġarguing":11724,"Ġargued":11725,"Ġarbitrate":11726,"Ġunthrifty":11727,"Ġgrafted":11728,"ĠJudas":11729,"Ġabstinence":11730,"Ġabode":11731,"Ġexactly":11732,"Ġexperienced":11733,"Ġriddle":11734,"Ġperfume":11735,"Ġperfumed":11736,"Ġtradesmen":11737,"Ġscruple":11738,"Ġcontrive":11739,"Ġcontrived":11740,"Ġappointment":11741,"ĠProfess":11742,"Ġchapel":11743,"Ġchests":11744,"Ġimpartial":11745,"Ġimpudent":11746,"Ġobstacles":11747,"Ġattentive":11748,"Ġstraitly":11749,"Ġprofanation":11750,"Ġpennyworth":11751,"ĠChristophero":11752,"Ġindirectly":11753,"Ġfeatly":11754,"Ġcontradict":11755,"Ġcontradiction":11756,"ĠFlorent":11757,"ĠFlorence":11758,"ĠNeighbour":11759,"ĠNeighbours":11760,"Ġholiday":11761,"Ġholidame":11762,"Ġreligion":11763,"Ġreligious":11764,"Ġadmiral":11765,"Ġgreyhound":11766,"Ġgreyhounds":11767,"Ġsyllable":11768,"Ġsyllables":11769,"Ġsuperfluous":11770,"Ġsuperfluity":11771,"Ġdisobedience":11772,"Ġdisobedient":11773,"Ġsinews":11774,"Ġcuckolds":11775,"bridge":11776,"dinand":11777,"disp":11778,"politan":11779,"spoken":11780,"Ġaugment":11781,"Ġausterity":11782,"Ġmotive":11783,"Ġmingle":11784,"Ġmassacre":11785,"Ġwrapt":11786,"Ġbaleful":11787,"erately":11788,"Ġcypress":11789,"Ġcottage":11790,"Ġcedar":11791,"Ġcasque":11792,"Ġcertainty":11793,"Ġcelebr":11794,"Ġnavy":11795,"Ġlechery":11796,"Ġthrall":11797,"Ġthoroughly":11798,"Ġostentation":11799,"Ġocean":11800,"Ġpheasant":11801,"Ġpirate":11802,"Ġpuling":11803,"Ġpensive":11804,"Ġpalsied":11805,"ĠTendering":11806,"ĠTremble":11807,"Ġglean":11808,"Ġgilded":11809,"Ġgorgeous":11810,"Ġbehove":11811,"ĠWorcester":11812,"Ġhabiliments":11813,"ĠBreton":11814,"ĠSaddle":11815,"ĠSelf":11816,"ĠSlander":11817,"ĠHaply":11818,"ĠHungary":11819,"ĠCotus":11820,"Ġeggs":11821,"Ġelbow":11822,"Ġewes":11823,"Ġstalls":11824,"Ġstinted":11825,"Ġkernels":11826,"Ġkitchen":11827,"ĠLadies":11828,"ĠFerdinand":11829,"Ġreversion":11830,"Ġreleased":11831,"Ġrehearse":11832,"ĠPitchers":11833,"ĠPilate":11834,"ĠNightly":11835,"Ġdolour":11836,"Ġnovice":11837,"ĠDoubly":11838,"Ġseventeen":11839,"Ġherdsmen":11840,"Ġvestal":11841,"ĠVarrius":11842,"Ġwheresoe":11843,"Ġconverts":11844,"Ġconversation":11845,"Ġconvented":11846,"Ġblasphem":11847,"ershades":11848,"Ġuniversal":11849,"Ġproverb":11850,"Ġplenteous":11851,"Ġdiscipline":11852,"Ġenrolled":11853,"Ġoutstret":11854,"Ġexhales":11855,"Ġripest":11856,"Ġribbons":11857,"Ġadulter":11858,"Ġpresumption":11859,"Ġprescription":11860,"ĠStirr":11861,"ĠStephen":11862,"ĠProdigious":11863,"Ġrespite":11864,"Ġendeavours":11865,"Ġtragedy":11866,"Ġbraggart":11867,"Ġimpregnable":11868,"Ġglistering":11869,"Ġeyebrows":11870,"ĠUnworthy":11871,"Ġstripling":11872,"Ġstreaks":11873,"Ġstrangeness":11874,"ĠSuffolk":11875,"Ġgreediness":11876,"Ġtemperately":11877,"ĠPlainly":11878,"Ġexecuting":11879,"Ġinfluences":11880,"Ġquarrelling":11881,"Ġparchment":11882,"Ġvehement":11883,"Ġstirrup":11884,"Ġcradle":11885,"Ġencompass":11886,"Ġencouragement":11887,"Ġexpostulate":11888,"Ġestablish":11889,"Ġbarbarism":11890,"ĠBloody":11891,"Ġunwillingly":11892,"ĠAmazonian":11893,"Ġcauser":11894,"Ġtemporal":11895,"ĠEnvironed":11896,"Ġcounterpoised":11897,"Ġwagoner":11898,"Ġunprepared":11899,"Ġescaped":11900,"Ġambassador":11901,"Ġvanquish":11902,"Ġbasilisk":11903,"Ġsympathy":11904,"Ġdifferences":11905,"weighs":11906,"ĠGuildhall":11907,"Ġunreverent":11908,"Ġmasquers":11909,"ĠCheerly":11910,"ĠErroneous":11911,"Ġclergymen":11912,"ĠRedeemer":11913,"Ġcannibals":11914,"Ġtumultuous":11915,"ĠFRANCISCA":11916,"Ġsulphurous":11917,"Ġviolets":11918,"Citizens":11919,"Coriolanus":11920,"Romeo":11921,"Remember":11922,"Thanks":11923,"Verily":11924,"creature":11925,"corner":11926,"mercy":11927,"tongued":11928,"Ġthaw":11929,"Ġtarget":11930,"Ġaediles":11931,"Ġautumn":11932,"Ġauspicious":11933,"Ġscepter":11934,"Ġsouthern":11935,"Ġmalmsey":11936,"Ġmattock":11937,"Ġbisson":11938,"Ġfourscore":11939,"Ġdaffodils":11940,"Ġcodpiece":11941,"Ġnimbly":11942,"Ġhuntsmen":11943,"Ġponderous":11944,"Ġphrase":11945,"ĠThieves":11946,"ĠTaste":11947,"ĠTITUS":11948,"ĠAutolycus":11949,"ĠAlexander":11950,"Ġgasping":11951,"Ġgeese":11952,"Ġgillyvors":11953,"Ġghastly":11954,"ĠWondrous":11955,"Ġindex":11956,"Ġinexorable":11957,"Ġinhuman":11958,"ĠBERKELEY":11959,"ĠSheriff":11960,"ĠSoutham":11961,"ĠSummon":11962,"ĠHannibal":11963,"ĠMamillius":11964,"ĠMonday":11965,"ĠMortimer":11966,"ĠMopsa":11967,"ĠMEASURE":11968,"ĠMiranda":11969,"ĠChange":11970,"ĠCARDINAL":11971,"ĠCrowns":11972,"ĠCulling":11973,"ĠCertainly":11974,"ĠCounsel":11975,"ĠCHRISTOP":11976,"Ġwealthily":11977,"Ġeastern":11978,"ĠOlymp":11979,"Ġstamps":11980,"Ġstatesman":11981,"ĠLibya":11982,"ĠLOVEL":11983,"ĠFurther":11984,"ĠFrederick":11985,"Ġlibrary":11986,"ĠPretty":11987,"ĠNeapolitan":11988,"ĠNorthampton":11989,"ĠNicanor":11990,"ĠYorkshire":11991,"Ġsemblance":11992,"Ġsprang":11993,"Ġnephew":11994,"Ġcomforter":11995,"Ġmuddy":11996,"ĠVincetino":11997,"ĠVAUGHAN":11998,"Ġcongealed":11999,"ĠForswear":12000,"Ġorisons":12001,"Ġarrogance":12002,"Ġarithmetic":12003,"Ġlethargy":12004,"Ġunhallow":12005,"Ġunfortunate":12006,"Ġunposs":12007,"Ġunsettled":12008,"Ġprolix":12009,"Ġfrivolous":12010,"Ġhandkerchief":12011,"Ġexamples":12012,"agabond":12013,"Ġadmonition":12014,"Ġpredominant":12015,"Ġprecipitation":12016,"Ġprenzie":12017,"Ġpredecessors":12018,"Ġpurblind":12019,"Ġcockerel":12020,"Ġpatrimony":12021,"ĠUnsheathe":12022,"Ġwelcomed":12023,"Ġdiscourses":12024,"ĠSuggest":12025,"Ġfurthest":12026,"Ġincorporate":12027,"ĠGloucestershire":12028,"Ġcormorant":12029,"Ġaffianced":12030,"Ġcrotchets":12031,"Ġinterchangeably":12032,"ĠDeucalion":12033,"Ġprincipal":12034,"Ġpetticoat":12035,"Ġunspeakable":12036,"Ġunsuspected":12037,"ĠFlavius":12038,"Ġschoolboys":12039,"Ġeducation":12040,"Ġcockatrice":12041,"Ġcaterpillars":12042,"ĠBenedicite":12043,"ĠCHRISTOPHER":12044,"',":12045,"':":12046,"';":12047,"Alla":12048,"Bo":12049,"Br":12050,"By":12051,"Bes":12052,"But":12053,"Bove":12054,"Cl":12055,"Con":12056,"Com":12057,"Cock":12058,"Content":12059,"Cuc":12060,"Do":12061,"Ding":12062,"Dear":12063,"Deny":12064,"Death":12065,"For":12066,"Fri":12067,"Fine":12068,"Fret":12069,"Fair":12070,"Farewell":12071,"Go":12072,"Hell":12073,"Hark":12074,"HILI":12075,"In":12076,"Is":12077,"Jack":12078,"Jesu":12079,"King":12080,"Lord":12081,"Look":12082,"Mar":12083,"More":12084,"MER":12085,"Madam":12086,"Maries":12087,"Now":12088,"Nurse":12089,"OTH":12090,"Pl":12091,"Pr":12092,"Pat":12093,"Pri":12094,"Peace":12095,"Pardon":12096,"Pray":12097,"Ret":12098,"Red":12099,"Rise":12100,"SE":12101,"Se":12102,"Sm":12103,"So":12104,"She":12105,"Sit":12106,"Save":12107,"Saint":12108,"Shall":12109,"Signior":12110,"Sund":12111,"Scape":12112,"SEPH":12113,"Simois":12114,"Sigeia":12115,"Sdeath":12116,"That":12117,"Tear":12118,"TLE":12119,"Tribunes":12120,"Then":12121,"VING":12122,"War":12123,"Will":12124,"Well":12125,"Wind":12126,"Why":12127,"Wel":12128,"Wilt":12129,"Widow":12130,"Where":12131,"Your":12132,"ah":12133,"aed":12134,"aol":12135,"award":12136,"away":12137,"acc":12138,"aft":12139,"acent":12140,"acentio":12141,"aired":12142,"aited":12143,"aways":12144,"apping":12145,"actions":12146,"access":12147,"bre":12148,"bet":12149,"bra":12150,"bal":12151,"bro":12152,"bard":12153,"brow":12154,"bone":12155,"bish":12156,"bound":12157,"bun":12158,"bag":12159,"burn":12160,"bold":12161,"bable":12162,"bew":12163,"bird":12164,"bling":12165,"bia":12166,"bby":12167,"bring":12168,"bush":12169,"bels":12170,"bbit":12171,"bingly":12172,"breed":12173,"broth":12174,"brate":12175,"bursed":12176,"bub":12177,"blesome":12178,"brey":12179,"bwe":12180,"borough":12181,"braid":12182,"branch":12183,"breach":12184,"barr":12185,"bait":12186,"bawd":12187,"baby":12188,"cs":12189,"cit":12190,"car":12191,"cam":12192,"cand":12193,"cter":12194,"cil":12195,"cry":12196,"col":12197,"cond":12198,"cum":12199,"crown":12200,"cull":12201,"catch":12202,"cos":12203,"cried":12204,"cousin":12205,"cons":12206,"cham":12207,"cides":12208,"cured":12209,"cils":12210,"crest":12211,"coun":12212,"cern":12213,"cover":12214,"cub":12215,"courage":12216,"cerns":12217,"cuing":12218,"course":12219,"charge":12220,"cases":12221,"cann":12222,"coff":12223,"cris":12224,"carried":12225,"cule":12226,"clip":12227,"don":12228,"dow":12229,"das":12230,"dess":12231,"dam":12232,"dic":12233,"dong":12234,"die":12235,"dost":12236,"dall":12237,"dure":12238,"dence":12239,"down":12240,"daughter":12241,"died":12242,"dried":12243,"dens":12244,"div":12245,"dove":12246,"dues":12247,"dging":12248,"dying":12249,"dames":12250,"drench":12251,"dared":12252,"dares":12253,"dainty":12254,"diments":12255,"dolour":12256,"ditary":12257,"deaf":12258,"darting":12259,"ez":12260,"eis":12261,"ean":12262,"eas":12263,"eck":12264,"even":12265,"eking":12266,"eze":12267,"evol":12268,"eban":12269,"eating":12270,"elect":12271,"equal":12272,"eighing":12273,"fow":12274,"fill":12275,"fru":12276,"fear":12277,"from":12278,"fry":12279,"five":12280,"fers":12281,"found":12282,"fire":12283,"face":12284,"fool":12285,"field":12286,"fires":12287,"finger":12288,"faith":12289,"fume":12290,"fited":12291,"fitable":12292,"foes":12293,"fishes":12294,"folks":12295,"fathom":12296,"ficial":12297,"factors":12298,"fatal":12299,"framed":12300,"farewell":12301,"ffered":12302,"fashion":12303,"gm":12304,"gre":12305,"gon":12306,"gay":12307,"gam":12308,"gard":12309,"grow":12310,"gall":12311,"god":12312,"gio":12313,"gings":12314,"gaw":12315,"gran":12316,"geth":12317,"gged":12318,"gird":12319,"gling":12320,"gans":12321,"gener":12322,"ghed":12323,"gives":12324,"grace":12325,"gations":12326,"grand":12327,"gills":12328,"guses":12329,"graced":12330,"giving":12331,"gative":12332,"gical":12333,"giver":12334,"goned":12335,"giveness":12336,"gracious":12337,"geny":12338,"ground":12339,"gorged":12340,"grav":12341,"gaited":12342,"hs":12343,"ht":12344,"his":12345,"hot":12346,"hine":12347,"hook":12348,"hound":12349,"hunt":12350,"hours":12351,"houses":12352,"horses":12353,"hung":12354,"hrey":12355,"ich":12356,"iend":12357,"ium":12358,"iory":12359,"ipl":12360,"ibly":12361,"ipes":12362,"iused":12363,"iards":12364,"ique":12365,"ipping":12366,"iases":12367,"iercing":12368,"iwork":12369,"iavel":12370,"jor":12371,"jury":12372,"jured":12373,"jump":12374,"jealous":12375,"jax":12376,"juiced":12377,"junction":12378,"jacent":12379,"kill":12380,"kine":12381,"kerc":12382,"kins":12383,"kets":12384,"known":12385,"killing":12386,"knit":12387,"knock":12388,"lest":12389,"lam":12390,"line":12391,"lers":12392,"lod":12393,"lady":12394,"lower":12395,"lough":12396,"lins":12397,"lift":12398,"laud":12399,"lished":12400,"lots":12401,"laughters":12402,"lane":12403,"luce":12404,"lackey":12405,"mi":12406,"mes":12407,"may":12408,"mour":12409,"mur":12410,"mould":12411,"might":12412,"mant":12413,"mic":12414,"mout":12415,"mother":12416,"mers":12417,"mate":12418,"mish":12419,"mence":12420,"mness":12421,"meet":12422,"mont":12423,"mix":12424,"mates":12425,"madam":12426,"mured":12427,"marry":12428,"mund":12429,"mises":12430,"mutation":12431,"moot":12432,"moon":12433,"married":12434,"melting":12435,"mpery":12436,"mildly":12437,"maculate":12438,"na":12439,"nn":12440,"nay":12441,"ned":12442,"nell":12443,"none":12444,"nod":12445,"name":12446,"nance":12447,"nings":12448,"nurse":12449,"nks":12450,"nows":12451,"nche":12452,"new":12453,"need":12454,"never":12455,"nched":12456,"nations":12457,"named":12458,"nical":12459,"niments":12460,"nareth":12461,"oa":12462,"oan":12463,"oves":12464,"oci":12465,"oice":12466,"occ":12467,"oons":12468,"overn":12469,"oze":12470,"oked":12471,"oating":12472,"oifs":12473,"pre":12474,"pot":12475,"pat":12476,"pri":12477,"ply":12478,"pro":12479,"pake":12480,"pard":12481,"part":12482,"path":12483,"pry":12484,"post":12485,"pond":12486,"pig":12487,"phy":12488,"port":12489,"pice":12490,"purse":12491,"paint":12492,"pable":12493,"peace":12494,"pint":12495,"pier":12496,"pale":12497,"pits":12498,"pens":12499,"pons":12500,"pets":12501,"pina":12502,"pingham":12503,"pires":12504,"pated":12505,"pac":12506,"piled":12507,"parted":12508,"paced":12509,"pact":12510,"pane":12511,"pipe":12512,"pothecary":12513,"phere":12514,"pulous":12515,"prop":12516,"posterous":12517,"presseth":12518,"pipes":12519,"rut":12520,"roo":12521,"rind":12522,"rink":12523,"rise":12524,"rtle":12525,"rors":12526,"rating":12527,"rarch":12528,"rusion":12529,"rising":12530,"raded":12531,"rhyme":12532,"rothed":12533,"roused":12534,"sit":12535,"sar":12536,"som":12537,"sore":12538,"sers":12539,"spe":12540,"sward":12541,"sold":12542,"sier":12543,"ssed":12544,"scent":12545,"sling":12546,"spect":12547,"said":12548,"sainted":12549,"sset":12550,"sleep":12551,"songs":12552,"skin":12553,"savoury":12554,"sium":12555,"skins":12556,"tor":12557,"tit":12558,"tes":12559,"tim":12560,"tro":12561,"tain":12562,"tter":12563,"tart":12564,"tend":12565,"tie":12566,"ture":12567,"took":12568,"tish":12569,"tice":12570,"town":12571,"tful":12572,"tance":12573,"tack":12574,"tise":12575,"talk":12576,"tale":12577,"tail":12578,"teth":12579,"times":12580,"tere":12581,"tua":12582,"tels":12583,"tired":12584,"titude":12585,"trib":12586,"tunate":12587,"tuned":12588,"talion":12589,"tattling":12590,"tney":12591,"turned":12592,"tossed":12593,"treading":12594,"uri":12595,"uly":12596,"uate":12597,"uage":12598,"ubl":12599,"ugs":12600,"uished":12601,"uggard":12602,"uchess":12603,"vis":12604,"vow":12605,"vid":12606,"vul":12607,"vies":12608,"vass":12609,"viness":12610,"viv":12611,"vons":12612,"villain":12613,"vator":12614,"vaunt":12615,"vated":12616,"vantage":12617,"villing":12618,"vato":12619,"vitae":12620,"vouched":12621,"wi":12622,"war":12623,"word":12624,"wid":12625,"wol":12626,"wink":12627,"wish":12628,"walk":12629,"while":12630,"wild":12631,"widow":12632,"waking":12633,"woun":12634,"words":12635,"woe":12636,"welt":12637,"waning":12638,"warm":12639,"waving":12640,"warks":12641,"wooing":12642,"wounding":12643,"xes":12644,"xter":12645,"xible":12646,"yes":12647,"yed":12648,"year":12649,"yonder":12650,"yster":12651,"ydra":12652,"ygm":12653,"ynn":12654,"zy":12655,"zing":12656,"zure":12657,"zel":12658,"zeth":12659,"zounds":12660,"zards":12661,"ĠĠ":12662,"Ġet":12663,"Ġil":12664,"Ġrow":12665,"Ġic":12666,"Ġiv":12667,"Ġvers":12668,"Ġzen":12669,"Ġicy":12670,"Ġte":12671,"Ġtir":12672,"Ġtas":12673,"Ġtal":12674,"Ġtil":12675,"Ġtight":12676,"Ġtart":12677,"Ġtind":12678,"Ġtun":12679,"Ġtick":12680,"Ġtag":12681,"Ġteen":12682,"Ġtough":12683,"Ġtouse":12684,"Ġtaint":12685,"Ġtilt":12686,"Ġtittle":12687,"Ġtua":12688,"Ġtames":12689,"Ġtallow":12690,"Ġtund":12691,"Ġtaper":12692,"Ġtub":12693,"Ġteat":12694,"Ġtroll":12695,"Ġtips":12696,"Ġtaker":12697,"Ġtuns":12698,"Ġtickle":12699,"Ġtipt":12700,"Ġtug":12701,"Ġtuned":12702,"Ġtext":12703,"Ġtaketh":12704,"Ġtawd":12705,"Ġtetchy":12706,"hell":12707,"heal":12708,"heath":12709,"hence":12710,"hered":12711,"heme":12712,"herent":12713,"heathe":12714,"heims":12715,"hetua":12716,"Ġald":12717,"Ġail":12718,"Ġaward":12719,"Ġaided":12720,"Ġaired":12721,"Ġaright":12722,"Ġaunts":12723,"Ġaub":12724,"Ġaug":12725,"Ġavenged":12726,"Ġagued":12727,"Ġathwart":12728,"ouge":12729,"ourer":12730,"oully":12731,"ougher":12732,"oubled":12733,"Ġsor":12734,"Ġske":12735,"Ġsiz":12736,"Ġsakes":12737,"Ġsans":12738,"Ġsignior":12739,"Ġsours":12740,"Ġsift":12741,"Ġsinks":12742,"Ġsided":12743,"Ġscience":12744,"Ġsallow":12745,"Ġsnat":12746,"Ġsowl":12747,"Ġsourest":12748,"Ġmit":12749,"Ġment":12750,"Ġmand":12751,"Ġmul":12752,"Ġmic":12753,"Ġmate":12754,"Ġmall":12755,"Ġmice":12756,"Ġmose":12757,"Ġmio":12758,"Ġmire":12759,"Ġmace":12760,"Ġmought":12761,"Ġmint":12762,"Ġmalk":12763,"Ġmeth":12764,"Ġmix":12765,"Ġmalt":12766,"Ġmated":12767,"Ġmarted":12768,"Ġmills":12769,"Ġmaker":12770,"Ġmickle":12771,"Ġmules":12772,"Ġmixture":12773,"Ġmaketh":12774,"Ġwi":12775,"Ġwow":12776,"Ġwal":12777,"Ġwist":12778,"Ġwins":12779,"Ġwren":12780,"Ġwade":12781,"Ġwished":12782,"Ġwrench":12783,"Ġwarden":12784,"Ġwards":12785,"Ġwares":12786,"Ġwanders":12787,"Ġwrung":12788,"Ġwizard":12789,"Ġwaned":12790,"Ġwadd":12791,"ino":12792,"inch":12793,"inus":12794,"inci":12795,"inction":12796,"inister":12797,"inters":12798,"inally":12799,"inhabit":12800,"incible":12801,"reen":12802,"rear":12803,"rely":12804,"ream":12805,"reast":12806,"rement":12807,"render":12808,"reft":12809,"reason":12810,"revere":12811,"rements":12812,"revol":12813,"rections":12814,"reaming":12815,"reasonable":12816,"revoc":12817,"recked":12818,"report":12819,"hah":12820,"hail":12821,"haved":12822,"haca":12823,"hapes":12824,"havior":12825,"haplain":12826,"hasar":12827,"Ġtheat":12828,"Ġtheft":12829,"ndor":12830,"ndar":12831,"nded":12832,"ndone":12833,"ndower":12834,"Ġbis":12835,"Ġbor":12836,"Ġber":12837,"Ġbard":12838,"Ġbath":12839,"Ġbum":12840,"Ġbakes":12841,"Ġbapt":12842,"Ġbump":12843,"Ġbents":12844,"Ġbots":12845,"Ġbourn":12846,"Ġborder":12847,"Ġbarded":12848,"iser":12849,"isen":12850,"ishi":12851,"isel":12852,"isings":12853,"isite":12854,"isks":12855,"issed":12856,"isins":12857,"iseth":12858,"isition":12859,"isible":12860,"isping":12861,"iscate":12862,"iscible":12863,"isemaker":12864,"orm":12865,"orch":12866,"orus":12867,"orter":12868,"ority":12869,"orum":12870,"orters":12871,"orals":12872,"ormed":12873,"ormity":12874,"orative":12875,"orseless":12876,"orato":12877,"Ġfad":12878,"Ġfid":12879,"Ġfil":12880,"Ġfry":12881,"Ġfost":12882,"Ġfist":12883,"Ġfont":12884,"Ġfins":12885,"Ġfren":12886,"Ġfates":12887,"Ġfens":12888,"Ġfeal":12889,"Ġfished":12890,"Ġfives":12891,"Ġfrust":12892,"Ġfines":12893,"Ġfiles":12894,"Ġfiled":12895,"Ġfroth":12896,"Ġfund":12897,"Ġfane":12898,"Ġfeder":12899,"Ġfann":12900,"Ġfisting":12901,"Ġfris":12902,"Ġfisher":12903,"Ġfixture":12904,"Ġferry":12905,"Ġfringed":12906,"Ġfoully":12907,"Ġfishi":12908,"ĠIo":12909,"ĠIgn":12910,"ĠIrons":12911,"ĠIcar":12912,"erk":12913,"ero":12914,"erce":12915,"erver":12916,"eries":12917,"erford":12918,"ercome":12919,"erling":12920,"erial":12921,"erning":12922,"errim":12923,"erborn":12924,"erkin":12925,"ergrown":12926,"erlook":12927,"erthrow":12928,"ermatch":12929,"erworn":12930,"erweighs":12931,"erdon":12932,"llor":12933,"llar":12934,"llity":12935,"llown":12936,"llos":12937,"llens":12938,"llanders":12939,"iton":12940,"iting":12941,"itate":12942,"iture":12943,"itless":12944,"itious":12945,"itty":12946,"itling":12947,"itute":12948,"itcher":12949,"itured":12950,"itched":12951,"itating":12952,"itulate":12953,"itably":12954,"itigation":12955,"itrav":12956,"onis":12957,"onet":12958,"only":12959,"onato":12960,"onville":12961,"onimy":12962,"onouncing":12963,"oniards":12964,"Ġdir":12965,"Ġdut":12966,"Ġdad":12967,"Ġdus":12968,"Ġdic":12969,"Ġdice":12970,"Ġdran":12971,"Ġduck":12972,"Ġdale":12973,"Ġdray":12974,"Ġdens":12975,"Ġdild":12976,"Ġdict":12977,"Ġdries":12978,"Ġdip":12979,"Ġdarted":12980,"Ġdote":12981,"Ġdonation":12982,"Ġditch":12983,"Ġdived":12984,"Ġdaws":12985,"Ġdarling":12986,"Ġdashing":12987,"Ġdumbly":12988,"Ġdyed":12989,"Ġditty":12990,"Ġcake":12991,"Ġcic":12992,"Ġcue":12993,"Ġcage":12994,"Ġcust":12995,"Ġcran":12996,"Ġcors":12997,"Ġcork":12998,"Ġcud":12999,"Ġcale":13000,"Ġcoop":13001,"Ġcels":13002,"Ġcrust":13003,"Ġcac":13004,"Ġcited":13005,"Ġcites":13006,"Ġcement":13007,"Ġcarts":13008,"Ġcases":13009,"Ġcaged":13010,"Ġcadd":13011,"Ġnit":13012,"Ġnom":13013,"Ġnour":13014,"Ġnill":13015,"Ġnur":13016,"Ġnie":13017,"Ġnook":13018,"Ġnick":13019,"Ġnerv":13020,"Ġnets":13021,"Ġnip":13022,"Ġnines":13023,"Ġnations":13024,"Ġnipp":13025,"Ġnaming":13026,"Ġnavel":13027,"Ġlot":13028,"Ġlat":13029,"Ġlear":13030,"Ġlath":13031,"Ġlout":13032,"Ġleak":13033,"Ġleet":13034,"Ġluke":13035,"Ġlull":13036,"Ġlade":13037,"Ġlunes":13038,"Ġlush":13039,"Ġlaud":13040,"Ġlots":13041,"Ġlurch":13042,"Ġlines":13043,"Ġlawn":13044,"Ġlash":13045,"Ġlining":13046,"Ġlaced":13047,"Ġlutes":13048,"Ġlouts":13049,"Ġlitt":13050,"Ġlingers":13051,"Ġlulls":13052,"Ġlavish":13053,"Ġlascivious":13054,"Ġlux":13055,"Ġlids":13056,"Ġlonely":13057,"Ġlisping":13058,"Ġyest":13059,"Ġyearn":13060,"Ġyawn":13061,"Ġyarn":13062,"Ġyards":13063,"Ġyellows":13064,"Ġyoked":13065,"esus":13066,"esies":13067,"enor":13068,"enem":13069,"enance":13070,"ensed":13071,"enix":13072,"enary":13073,"enched":13074,"enounce":13075,"engers":13076,"enoa":13077,"enitured":13078,"Ġthump":13079,"Ġthund":13080,"arve":13081,"arce":13082,"arqu":13083,"arage":13084,"arved":13085,"arouse":13086,"arable":13087,"arled":13088,"arition":13089,"arrel":13090,"arters":13091,"arries":13092,"arrows":13093,"arbed":13094,"arac":13095,"arians":13096,"arib":13097,"armory":13098,"arraign":13099,"arists":13100,"Ġhoo":13101,"Ġhic":13102,"Ġhue":13103,"Ġhies":13104,"Ġhull":13105,"Ġhits":13106,"Ġhuse":13107,"Ġhoof":13108,"Ġhired":13109,"Ġhipp":13110,"Ġhips":13111,"Ġoar":13112,"Ġoily":13113,"Ġoils":13114,"Ġopes":13115,"Ġoats":13116,"Ġoaken":13117,"Ġomn":13118,"Ġopin":13119,"Ġosp":13120,"Ġoperation":13121,"Ġolive":13122,"Ġooze":13123,"Ġopens":13124,"Ġosier":13125,"Ġoyster":13126,"Ġtod":13127,"Ġtoge":13128,"Ġtool":13129,"Ġtods":13130,"Ġtoday":13131,"Ġtoaze":13132,"Ġtopping":13133,"Ġyounk":13134,"Ġpan":13135,"Ġpom":13136,"Ġpome":13137,"Ġpam":13138,"Ġpho":13139,"Ġprow":13140,"Ġpend":13141,"Ġpother":13142,"Ġpep":13143,"Ġpall":13144,"Ġpink":13145,"Ġpel":13146,"Ġpose":13147,"Ġpec":13148,"Ġpoul":13149,"Ġpag":13150,"Ġpaw":13151,"Ġpatch":13152,"Ġpied":13153,"Ġpious":13154,"Ġpail":13155,"Ġpates":13156,"Ġpalt":13157,"Ġpike":13158,"Ġpester":13159,"Ġpunt":13160,"Ġpined":13161,"Ġportal":13162,"Ġpander":13163,"Ġpeach":13164,"Ġpots":13165,"Ġpiles":13166,"Ġpang":13167,"Ġpash":13168,"Ġpicked":13169,"Ġpaced":13170,"Ġpaly":13171,"Ġpages":13172,"Ġpushes":13173,"Ġpumps":13174,"Ġpaws":13175,"Ġpaved":13176,"Ġpassed":13177,"Ġpushed":13178,"Ġpaucas":13179,"Ġponiards":13180,"ĠTim":13181,"ĠTent":13182,"ĠTri":13183,"ĠTal":13184,"ĠTro":13185,"ĠTam":13186,"ĠTear":13187,"ĠTart":13188,"ĠTrow":13189,"ĠTie":13190,"ĠTres":13191,"ĠTook":13192,"ĠTies":13193,"ĠTire":13194,"ĠTap":13195,"ĠTab":13196,"ĠTale":13197,"ĠTues":13198,"ĠTarry":13199,"ĠTurp":13200,"ĠTempt":13201,"ĠTends":13202,"ĠTaken":13203,"ĠTrim":13204,"ĠTidings":13205,"ĠTedious":13206,"ĠTeeth":13207,"ĠTakest":13208,"ĠTinct":13209,"ĠTickle":13210,"ĠTug":13211,"ĠTouches":13212,"ĠTetchy":13213,"ĠTreason":13214,"hath":13215,"ĠAve":13216,"ĠAch":13217,"ĠAra":13218,"ĠAur":13219,"ĠAge":13220,"ĠAble":13221,"ĠAfore":13222,"ĠAves":13223,"ĠAng":13224,"ĠAction":13225,"ĠAud":13226,"ĠAged":13227,"ĠAmb":13228,"ĠAlike":13229,"ĠAbs":13230,"ĠAvo":13231,"ĠArist":13232,"ĠAuthor":13233,"ĠAgreed":13234,"ĠAiry":13235,"ĠAthwart":13236,"ĠAjax":13237,"ĠAvaunt":13238,"Ġhest":13239,"Ġheif":13240,"Ġheath":13241,"Ġheating":13242,"Ġhewing":13243,"Ġhefts":13244,"Ġheareth":13245,"Ġhedges":13246,"veal":13247,"velo":13248,"veying":13249,"vets":13250,"oto":13251,"oty":13252,"otle":13253,"otched":13254,"otted":13255,"otarists":13256,"ston":13257,"sted":13258,"start":13259,"sters":13260,"stall":13261,"stick":13262,"stock":13263,"stroke":13264,"stition":13265,"steem":13266,"strate":13267,"stomach":13268,"stinate":13269,"stoned":13270,"strue":13271,"staining":13272,"strings":13273,"stantial":13274,"storm":13275,"starved":13276,"owell":13277,"owland":13278,"owder":13279,"owls":13280,"inge":13281,"inged":13282,"Ġoffered":13283,"anim":13284,"aners":13285,"answer":13286,"anished":13287,"anointed":13288,"anuary":13289,"aniel":13290,"oms":13291,"omies":13292,"omerv":13293,"ombed":13294,"omacher":13295,"omplish":13296,"ombard":13297,"Ġgin":13298,"Ġgan":13299,"Ġgad":13300,"Ġgart":13301,"Ġgem":13302,"Ġgout":13303,"Ġgig":13304,"Ġgaw":13305,"Ġgli":13306,"Ġgab":13307,"Ġgory":13308,"Ġgirt":13309,"Ġgirth":13310,"Ġgrum":13311,"Ġgang":13312,"Ġgash":13313,"Ġgnat":13314,"Ġgulls":13315,"Ġgerman":13316,"Ġglanders":13317,"Ġgrange":13318,"Ġgraybe":13319,"ata":13320,"atra":13321,"athi":13322,"atain":13323,"atant":13324,"atry":13325,"atress":13326,"atert":13327,"atling":13328,"athes":13329,"atement":13330,"atomy":13331,"Ġbees":13332,"Ġbever":13333,"Ġbeest":13334,"Ġbeak":13335,"Ġbellow":13336,"Ġbeach":13337,"Ġbeds":13338,"Ġbelock":13339,"Ġbehest":13340,"Ġbearts":13341,"Ġbeareth":13342,"Ġbequeath":13343,"Ġbepaint":13344,"ĠWin":13345,"ĠWra":13346,"ĠWea":13347,"ĠWake":13348,"ĠWast":13349,"ĠWine":13350,"ĠWend":13351,"ĠWol":13352,"ĠWind":13353,"ĠWeak":13354,"ĠWither":13355,"ĠWave":13356,"ĠWears":13357,"ĠWret":13358,"ĠWork":13359,"ĠWalk":13360,"ĠWhip":13361,"ĠWonder":13362,"ĠWept":13363,"ĠWater":13364,"ĠWenches":13365,"ĠWailing":13366,"ĠWait":13367,"ĠWinc":13368,"ĠWooing":13369,"ĠWanting":13370,"ĠWorship":13371,"ĠWaft":13372,"ĠWrecked":13373,"ĠWatert":13374,"sex":13375,"seill":13376,"sely":13377,"seal":13378,"sever":13379,"seven":13380,"secr":13381,"seeing":13382,"separ":13383,"Ġmyster":13384,"Ġmyrtle":13385,"Ġinn":13386,"Ġinly":13387,"Ġinund":13388,"Ġinherited":13389,"Ġiniquity":13390,"Ġinaus":13391,"Ġinvoc":13392,"Ġinev":13393,"Ġinvocate":13394,"Ġinaccess":13395,"Ġinequal":13396,"Ġinherent":13397,"Ġhai":13398,"Ġhale":13399,"Ġhaver":13400,"Ġhares":13401,"Ġhaps":13402,"Ġhallow":13403,"Ġhams":13404,"Ġhailed":13405,"Ġhavior":13406,"Ġhalves":13407,"Ġhavoc":13408,"cet":13409,"lew":13410,"leon":13411,"leather":13412,"leges":13413,"leads":13414,"legg":13415,"learn":13416,"leaf":13417,"levied":13418,"legged":13419,"lemish":13420,"lendower":13421,"lding":13422,"irur":13423,"iram":13424,"irous":13425,"iric":13426,"iration":13427,"ircle":13428,"irits":13429,"irrel":13430,"irmit":13431,"eted":13432,"eties":13433,"edy":13434,"edified":13435,"editer":13436,"edgea":13437,"ediction":13438,"uter":13439,"utter":13440,"utic":13441,"utel":13442,"utors":13443,"uteth":13444,"utary":13445,"utually":13446,"uttish":13447,"ĠBour":13448,"ĠBent":13449,"ĠBord":13450,"ĠBas":13451,"ĠBess":13452,"ĠBast":13453,"ĠBight":13454,"ĠBend":13455,"ĠBond":13456,"ĠBate":13457,"ĠBum":13458,"ĠBorn":13459,"ĠBurn":13460,"ĠBears":13461,"ĠBred":13462,"ĠBles":13463,"ĠBlo":13464,"ĠBalk":13465,"ĠBark":13466,"ĠBroke":13467,"ĠBalt":13468,"ĠBade":13469,"ĠBury":13470,"ĠBina":13471,"ĠBalm":13472,"ĠBourn":13473,"ĠBastard":13474,"ĠBene":13475,"ĠBenn":13476,"ĠBroach":13477,"ĠBarth":13478,"ĠBruised":13479,"ĠBunch":13480,"ĠBrid":13481,"ĠBacc":13482,"ĠBonville":13483,"ĠBanished":13484,"ĠBlemish":13485,"Ġmeag":13486,"Ġmeads":13487,"Ġmerest":13488,"Ġmember":13489,"Ġmeats":13490,"Ġmechan":13491,"Ġmeac":13492,"Ġmeeds":13493,"Ġmeasures":13494,"imau":13495,"imable":13496,"imper":13497,"impse":13498,"imney":13499,"imroses":13500,"ĠSore":13501,"ĠSear":13502,"ĠSho":13503,"ĠSER":13504,"ĠSem":13505,"ĠSink":13506,"ĠSpe":13507,"ĠSun":13508,"ĠSign":13509,"ĠShar":13510,"ĠSeen":13511,"ĠSigh":13512,"ĠSide":13513,"ĠSwell":13514,"ĠSud":13515,"ĠSail":13516,"ĠSits":13517,"ĠSons":13518,"ĠSalt":13519,"ĠSey":13520,"ĠSaid":13521,"ĠSouth":13522,"ĠSends":13523,"ĠSac":13524,"ĠSeem":13525,"ĠSeld":13526,"ĠServed":13527,"ĠSandal":13528,"ĠSeeming":13529,"ĠShamed":13530,"ĠSlain":13531,"ĠSlu":13532,"ĠSchool":13533,"ĠSailing":13534,"ĠSaving":13535,"ĠSiby":13536,"ĠSimple":13537,"ĠSilver":13538,"ĠSabb":13539,"ĠSlave":13540,"ĠSatisf":13541,"ĠSimon":13542,"ĠStern":13543,"ĠSlaughters":13544,"ĠSarac":13545,"ĠSoto":13546,"ĠSomerv":13547,"ĠSlew":13548,"Ġnotion":13549,"Ġnotched":13550,"ĠHot":13551,"ĠHid":13552,"ĠHood":13553,"ĠHus":13554,"ĠHic":13555,"ĠHol":13556,"ĠHall":13557,"ĠHook":13558,"ĠHist":13559,"ĠHoy":13560,"ĠHither":13561,"ĠHag":13562,"ĠHunt":13563,"ĠHides":13564,"ĠHours":13565,"ĠHush":13566,"ĠHillo":13567,"ĠHop":13568,"ĠHump":13569,"ĠHames":13570,"ĠHope":13571,"ĠHumbling":13572,"ĠHiding":13573,"ĠHyr":13574,"ĠHumbly":13575,"ĠHydra":13576,"chm":13577,"chors":13578,"chos":13579,"chins":13580,"christ":13581,"chises":13582,"choes":13583,"Ġista":13584,"ĠMi":13585,"ĠMad":13586,"ĠMas":13587,"ĠMal":13588,"ĠMOR":13589,"ĠMart":13590,"ĠMend":13591,"ĠMother":13592,"ĠMum":13593,"ĠMass":13594,"ĠMaint":13595,"ĠMatch":13596,"ĠMiss":13597,"ĠMud":13598,"ĠMach":13599,"ĠMates":13600,"ĠMock":13601,"ĠMove":13602,"ĠMoney":13603,"ĠMended":13604,"ĠMang":13605,"ĠMoved":13606,"ĠMann":13607,"ĠMelting":13608,"ĠMerry":13609,"ĠMildly":13610,"ĠMerrim":13611,"ĠMitigation":13612,"ĠMediter":13613,"ĠMutually":13614,"ghing":13615,"Ġforcing":13616,"Ġforcible":13617,"Ġforgery":13618,"Ġump":13619,"kels":13620,"ĠCain":13621,"ĠCho":13622,"ĠCrow":13623,"ĠCost":13624,"ĠCreat":13625,"ĠCity":13626,"ĠCice":13627,"ĠCance":13628,"ĠChar":13629,"ĠCorn":13630,"ĠCurse":13631,"ĠCop":13632,"ĠCalm":13633,"ĠCats":13634,"ĠCover":13635,"ĠCustom":13636,"ĠCarn":13637,"ĠCease":13638,"ĠCunning":13639,"ĠChop":13640,"ĠCharge":13641,"ĠCharged":13642,"ĠCushi":13643,"ĠCousins":13644,"ĠCato":13645,"ĠCicester":13646,"ĠCaucas":13647,"ĠChaplain":13648,"ĠCarouse":13649,"ĠCatling":13650,"Ġwelf":13651,"Ġweals":13652,"Ġweeder":13653,"Ġwearers":13654,"Ġweaved":13655,"oursed":13656,"ooed":13657,"illery":13658,"Ġell":13659,"Ġeve":13660,"Ġean":13661,"Ġeart":13662,"Ġeel":13663,"Ġeun":13664,"Ġelf":13665,"Ġeject":13666,"Ġeaves":13667,"Ġewer":13668,"Ġecho":13669,"Ġeclip":13670,"Ġechoes":13671,"Ġwithstand":13672,"Ġwithheld":13673,"Ġwithdra":13674,"Ġwithstood":13675,"herd":13676,"enter":13677,"entous":13678,"entles":13679,"entimes":13680,"entrion":13681,"aden":13682,"ading":13683,"adel":13684,"adation":13685,"adders":13686,"adoes":13687,"aducement":13688,"advantage":13689,"riot":13690,"rice":13691,"ripp":13692,"ripe":13693,"rived":13694,"riving":13695,"rift":13696,"riched":13697,"ridge":13698,"rician":13699,"riatic":13700,"riages":13701,"rieves":13702,"rifts":13703,"ripture":13704,"ĠObs":13705,"ĠObed":13706,"ĠOpinion":13707,"ĠOwe":13708,"ĠOvid":13709,"Ġstow":13710,"Ġstur":13711,"Ġstare":13712,"Ġstum":13713,"Ġstable":13714,"Ġstool":13715,"Ġstakes":13716,"Ġstalk":13717,"Ġstile":13718,"Ġstaring":13719,"Ġstarted":13720,"Ġstub":13721,"Ġstares":13722,"Ġstoned":13723,"Ġstupid":13724,"Ġstrings":13725,"Ġstigm":13726,"Ġstrut":13727,"Ġsterling":13728,"Ġstitcher":13729,"Ġstomacher":13730,"Ġkam":13731,"Ġkil":13732,"Ġkick":13733,"Ġkite":13734,"Ġkerns":13735,"ĠLa":13736,"ĠLent":13737,"ĠLate":13738,"ĠLose":13739,"ĠLust":13740,"ĠLife":13741,"ĠLoud":13742,"ĠLiv":13743,"ĠLines":13744,"ĠLawn":13745,"ĠLiving":13746,"ĠLyc":13747,"ĠLawful":13748,"ĠLecher":13749,"ĠLabour":13750,"ĠLonely":13751,"ĠLynn":13752,"ĠLombard":13753,"ĠFro":13754,"ĠFain":13755,"ĠFOR":13756,"ĠFight":13757,"ĠFate":13758,"ĠFame":13759,"ĠFaster":13760,"ĠFace":13761,"ĠFled":13762,"ĠFert":13763,"ĠFew":13764,"ĠFix":13765,"ĠFeed":13766,"ĠFates":13767,"ĠFeel":13768,"ĠFeast":13769,"ĠFated":13770,"ĠFright":13771,"ĠFully":13772,"ĠFreed":13773,"ĠFlock":13774,"ĠFault":13775,"ĠFilling":13776,"ĠFoot":13777,"ĠFuries":13778,"ĠFilth":13779,"ĠFresh":13780,"ĠFidd":13781,"ĠFatal":13782,"ĠFramed":13783,"ĠFlanders":13784,"ĠFiend":13785,"ĠGot":13786,"ĠGEN":13787,"ĠGal":13788,"ĠGil":13789,"ĠGone":13790,"ĠGol":13791,"ĠGARD":13792,"ĠGrown":13793,"ĠGab":13794,"ĠGlo":13795,"ĠGrant":13796,"ĠGross":13797,"ĠGrows":13798,"ĠGazed":13799,"ĠGiving":13800,"ĠGris":13801,"ĠGerman":13802,"ĠGorged":13803,"ĠGraybe":13804,"ĠGrind":13805,"ĠGenoa":13806,"ĠGlendower":13807,"ĠGentles":13808,"ENER":13809,"Ġrely":13810,"Ġrever":13811,"Ġrect":13812,"Ġreft":13813,"Ġreform":13814,"Ġrecept":13815,"Ġreels":13816,"Ġreclaim":13817,"Ġreeds":13818,"Ġreared":13819,"Ġresemble":13820,"Ġreiter":13821,"Ġreverse":13822,"Ġreech":13823,"Ġrejourn":13824,"Ġreacheth":13825,"Ġrevels":13826,"Ġreeking":13827,"ording":13828,"ordinary":13829,"idies":13830,"idents":13831,"idency":13832,"idences":13833,"ral":13834,"ram":13835,"ras":13836,"rable":13837,"raven":13838,"raged":13839,"raised":13840,"rages":13841,"rained":13842,"rakes":13843,"raided":13844,"raining":13845,"racian":13846,"raordinary":13847,"lyra":13848,"Ġlieth":13849,"Ġlikest":13850,"Ġlilies":13851,"Ġlibels":13852,"Ġlizards":13853,"asus":13854,"asers":13855,"asps":13856,"ashed":13857,"ashes":13858,"asions":13859,"asseth":13860,"aspiring":13861,"ascule":13862,"ĠPay":13863,"ĠPour":13864,"ĠProm":13865,"ĠPink":13866,"ĠPort":13867,"ĠPower":13868,"ĠPaint":13869,"ĠPress":13870,"ĠPud":13871,"ĠPins":13872,"ĠPew":13873,"ĠPots":13874,"ĠPhysic":13875,"ĠPeg":13876,"ĠPub":13877,"ĠPiteous":13878,"ĠPattern":13879,"ĠPlead":13880,"ĠPraise":13881,"ĠPHILI":13882,"ĠPiercing":13883,"ĠPubl":13884,"ĠPygm":13885,"ĠPleads":13886,"ĠPimper":13887,"ĠPraised":13888,"urst":13889,"urous":13890,"urnt":13891,"urper":13892,"urrent":13893,"urden":13894,"urril":13895,"urguses":13896,"aling":13897,"alas":13898,"alment":13899,"alps":13900,"alms":13901,"aluted":13902,"aloon":13903,"alph":13904,"Ġsob":13905,"Ġsop":13906,"Ġsoles":13907,"Ġsoars":13908,"Ġsoaking":13909,"Ġsobs":13910,"Ġsofter":13911,"Ġsoaring":13912,"Ġsobri":13913,"Ġsojourn":13914,"Ġsoothed":13915,"Ġascent":13916,"Ġaspire":13917,"Ġaspired":13918,"Ġdeme":13919,"Ġdeject":13920,"Ġdealt":13921,"Ġdemer":13922,"Ġdeities":13923,"Ġdelect":13924,"Ġdexter":13925,"Ġonion":13926,"Ġonward":13927,"ĠRan":13928,"ĠRam":13929,"ĠRod":13930,"ĠRound":13931,"ĠRue":13932,"ĠRum":13933,"ĠRice":13934,"ĠRough":13935,"ĠRouse":13936,"ĠRail":13937,"ĠRans":13938,"ĠReal":13939,"ĠRhes":13940,"ĠRush":13941,"ĠRemn":13942,"ĠRude":13943,"ĠRash":13944,"ĠRazed":13945,"ĠRuns":13946,"ĠRidd":13947,"ĠRideth":13948,"ĠRheims":13949,"ĠRouge":13950,"ĠRowland":13951,"ĠRalph":13952,"oreth":13953,"oress":13954,"roved":13955,"roper":13956,"rodden":13957,"robed":13958,"roider":13959,"ropping":13960,"roasted":13961,"rocos":13962,"ĠNest":13963,"ĠNell":13964,"ĠNum":13965,"ĠNICH":13966,"ĠNec":13967,"ĠNaught":13968,"ĠNumber":13969,"ĠNUR":13970,"ĠNourish":13971,"ĠNimble":13972,"ĠNearer":13973,"ĠNips":13974,"ĠNich":13975,"ĠNero":13976,"hia":13977,"high":13978,"hipp":13979,"hibit":13980,"cken":13981,"ckle":13982,"ckled":13983,"cknock":13984,"vert":13985,"veril":13986,"vertis":13987,"verdict":13988,"ĠYon":13989,"ĠYond":13990,"estic":13991,"estry":13992,"estate":13993,"estial":13994,"estical":13995,"estershire":13996,"estimable":13997,"Ġshares":13998,"Ġshaft":13999,"Ġshamb":14000,"Ġshaken":14001,"Ġsharing":14002,"Ġshakest":14003,"Ġshanks":14004,"essant":14005,"essity":14006,"Ġdocks":14007,"Ġdogg":14008,"Ġdoxy":14009,"Ġdollar":14010,"eaves":14011,"eased":14012,"eaping":14013,"eaux":14014,"Ġnoont":14015,"Ġnods":14016,"Ġnovel":14017,"Ġnoisemaker":14018,"amt":14019,"amer":14020,"amond":14021,"amens":14022,
[...]
